▁xxunk	0
▁xxpad	0
▁xxbos	0
▁xxeos	0
▁xxfld	0
▁xxrep	0
▁xxwrep	0
▁xxup	0
▁xxmaj	0
<unk>	0
▁the	-3.33954
.	-3.36447
,	-3.43863
s	-3.5683
▁a	-3.87655
▁and	-3.96845
▁of	-4.04595
▁to	-4.08994
'	-4.18923
▁is	-4.35079
br	-4.36183
▁/>	-4.38691
<	-4.44924
▁in	-4.5153
▁it	-4.59951
▁I	-4.61714
▁that	-4.75248
▁this	-4.87365
t	-4.94192
▁was	-5.05084
▁	-5.08291
ing	-5.09737
▁movie	-5.15229
-	-5.17125
▁for	-5.22142
▁with	-5.23417
▁film	-5.25837
▁as	-5.34222
ed	-5.41403
▁The	-5.43442
▁but	-5.43573
▁on	-5.48578
▁you	-5.54729
▁"	-5.56963
▁(	-5.57159
▁be	-5.58152
▁are	-5.62039
ly	-5.65861
▁not	-5.67382
▁have	-5.69695
▁his	-5.71829
▁one	-5.7872
▁he	-5.83003
d	-5.83013
"	-5.83379
▁who	-5.91514
▁all	-5.92869
e	-5.94216
▁an	-5.94231
▁by	-5.96725
)	-5.99418
▁at	-6.01475
▁from	-6.04268
▁so	-6.04474
▁like	-6.04662
y	-6.06767
▁they	-6.10899
▁just	-6.12625
▁has	-6.13777
▁about	-6.15433
▁It	-6.16207
▁out	-6.17564
▁or	-6.20034
▁her	-6.24632
▁some	-6.25425
▁can	-6.27509
▁more	-6.31033
▁good	-6.32269
m	-6.4055
!	-6.41368
▁up	-6.41778
▁very	-6.44548
▁time	-6.45256
▁This	-6.45648
▁there	-6.47182
▁see	-6.48138
▁what	-6.48515
▁really	-6.4852
▁would	-6.49018
?	-6.49624
er	-6.49745
▁when	-6.53592
▁story	-6.53699
n	-6.54498
The	-6.55129
▁me	-6.55922
▁A	-6.5601
▁were	-6.57141
▁their	-6.58938
▁even	-6.59059
▁no	-6.6322
▁if	-6.63759
▁had	-6.63921
▁which	-6.6527
▁she	-6.66936
▁only	-6.68945
▁get	-6.69565
a	-6.6973
▁my	-6.71408
▁great	-6.71938
▁than	-6.72049
I	-6.72203
▁been	-6.73541
...	-6.73629
▁other	-6.74558
▁do	-6.75436
▁people	-6.75441
▁much	-6.76776
:	-6.78977
▁bad	-6.79006
▁-	-6.81145
▁well	-6.81449
▁we	-6.82121
ve	-6.82822
re	-6.83692
▁into	-6.84451
▁him	-6.85014
▁could	-6.85837
▁made	-6.86173
▁will	-6.8852
▁make	-6.88905
▁first	-6.91704
▁way	-6.92306
r	-6.93257
▁because	-6.93808
▁also	-6.947
▁most	-6.95067
▁think	-6.97913
es	-6.98919
▁character	-6.99095
▁how	-6.99271
▁them	-6.99598
▁too	-7.03731
▁don	-7.03746
▁any	-7.04081
▁films	-7.04245
▁characters	-7.05017
▁watch	-7.0513
▁plot	-7.07639
▁seen	-7.08297
in	-7.0872
▁many	-7.10892
▁being	-7.11648
;	-7.12188
▁movies	-7.1335
▁did	-7.13548
▁two	-7.14994
▁over	-7.15106
▁little	-7.15873
▁acting	-7.16006
▁show	-7.16767
▁love	-7.17592
▁'	-7.1802
▁And	-7.19005
▁better	-7.19012
▁where	-7.19724
▁best	-7.19804
▁ever	-7.20489
o	-7.21763
▁But	-7.21908
▁never	-7.22482
▁does	-7.22707
p	-7.23724
▁There	-7.23949
▁i	-7.24397
▁after	-7.24879
▁end	-7.24894
▁your	-7.24951
▁should	-7.2496
▁then	-7.25251
▁life	-7.25365
▁off	-7.25542
▁know	-7.26197
al	-7.26474
le	-7.28943
▁lot	-7.29138
i	-7.2998
▁scenes	-7.30145
).	-7.30822
▁<	-7.31387
▁say	-7.32101
▁find	-7.32378
▁S	-7.32435
▁back	-7.32942
▁funny	-7.33169
▁give	-7.34872
▁go	-7.35238
▁He	-7.35772
▁scene	-7.36536
or	-7.36787
▁here	-7.37391
S	-7.38241
▁its	-7.38343
▁man	-7.38683
c	-7.38916
▁In	-7.39249
▁B	-7.4031
ll	-7.40542
),	-7.41622
▁still	-7.4164
A	-7.42911
/	-7.43315
▁actors	-7.45705
▁doesn	-7.46519
it	-7.46657
▁years	-7.47498
▁something	-7.47849
on	-7.48499
▁such	-7.49036
▁nothing	-7.50283
▁try	-7.5062
▁real	-7.51513
▁these	-7.52246
▁work	-7.52537
▁through	-7.5406
▁makes	-7.54266
▁thing	-7.54576
▁didn	-7.54969
▁cast	-7.55674
▁watching	-7.56065
▁going	-7.56161
▁actually	-7.56441
▁look	-7.56512
ic	-7.56729
▁If	-7.57423
▁few	-7.57697
▁though	-7.58377
an	-7.58446
▁those	-7.59046
▁why	-7.59061
▁un	-7.59357
▁old	-7.59672
▁another	-7.61134
g	-7.61663
▁got	-7.62042
▁&	-7.62199
▁while	-7.62512
▁fact	-7.62842
▁same	-7.63209
▁T	-7.63484
and	-7.63763
l	-7.65044
▁down	-7.65733
▁play	-7.6648
▁quit	-7.66808
▁part	-7.66836
▁want	-7.66987
▁director	-7.67379
▁thought	-7.67785
▁before	-7.68311
▁C	-7.69481
▁seems	-7.70148
th	-7.71202
en	-7.71387
▁P	-7.7161
▁bit	-7.72094
▁guy	-7.73226
▁young	-7.7364
▁again	-7.74422
▁action	-7.74426
u	-7.74447
▁must	-7.74462
the	-7.74682
▁script	-7.74841
▁whole	-7.74857
▁pretty	-7.75228
▁right	-7.75311
▁hard	-7.75933
▁original	-7.76048
▁far	-7.76177
se	-7.76304
▁role	-7.76881
▁new	-7.77708
▁own	-7.77866
▁horror	-7.78533
▁ending	-7.79554
▁always	-7.80135
▁You	-7.80813
▁long	-7.8095
▁every	-7.81374
▁enough	-7.81401
▁kind	-7.82254
▁saw	-7.82688
▁world	-7.82717
▁around	-7.83547
▁between	-7.83982
▁comedy	-7.8444
▁interesting	-7.84617
▁now	-7.85903
▁things	-7.86017
▁re	-7.86127
--	-7.86298
▁point	-7.86974
▁least	-7.87983
▁without	-7.88671
▁take	-7.88691
▁feel	-7.89169
▁both	-7.89578
▁They	-7.90289
b	-7.90326
▁found	-7.90761
▁big	-7.91399
▁de	-7.91623
▁come	-7.91739
▁F	-7.93266
▁girl	-7.93682
▁may	-7.94027
▁almost	-7.94145
able	-7.94242
▁music	-7.94492
▁performance	-7.9465
▁might	-7.965
▁She	-7.96591
▁gets	-7.9704
▁done	-7.97295
▁main	-7.97507
▁series	-7.97527
▁So	-7.97891
▁DVD	-7.98504
ra	-7.99205
▁minutes	-8.00571
▁worst	-8.01055
▁M	-8.01086
▁reason	-8.01308
This	-8.01461
▁last	-8.01569
▁sure	-8.0162
▁screen	-8.01622
▁use	-8.01659
B	-8.02027
▁us	-8.02152
▁isn	-8.024
▁That	-8.03228
▁book	-8.03525
▁rather	-8.04194
T	-8.05166
▁woman	-8.05287
ness	-8.05453
C	-8.0549
ri	-8.0566
▁2	-8.05893
▁family	-8.06373
as	-8.07009
▁times	-8.07202
".	-8.0788
▁certain	-8.08004
▁turn	-8.08176
▁put	-8.08324
▁am	-8.08432
▁fun	-8.0845
ous	-8.08509
▁someone	-8.08634
▁since	-8.09269
▁worth	-8.09451
▁plays	-8.09481
▁different	-8.09675
▁actor	-8.09773
h	-8.10074
▁job	-8.10242
ity	-8.10269
▁sense	-8.10776
▁What	-8.10971
▁help	-8.113
▁course	-8.11379
▁away	-8.1142
▁keep	-8.11974
▁become	-8.1198
▁We	-8.1204
▁anyone	-8.12246
E	-8.12309
ie	-8.12892
less	-8.13183
▁E	-8.13281
▁D	-8.13765
la	-8.13768
us	-8.14032
man	-8.14073
▁yet	-8.14909
▁When	-8.14992
▁place	-8.15084
▁read	-8.15306
▁anything	-8.15474
▁together	-8.1549
est	-8.15579
▁goes	-8.15691
▁looking	-8.16037
It	-8.16037
▁wife	-8.16101
▁making	-8.16206
▁set	-8.16501
▁having	-8.16675
▁excellent	-8.16681
D	-8.17125
▁each	-8.17287
el	-8.17336
▁especially	-8.17356
during	-8.17547
▁comes	-8.17861
▁TV	-8.17992
probably	-8.18448
k	-8.18989
ion	-8.19011
▁s	-8.1909
▁said	-8.19124
▁version	-8.19139
ers	-8.1929
▁As	-8.19378
▁mind	-8.19395
▁special	-8.19893
ce	-8.20221
▁money	-8.2037
f	-8.21381
ch	-8.22433
ur	-8.22512
ar	-8.22517
▁three	-8.22907
▁W	-8.22912
▁lead	-8.23089
▁believe	-8.23351
▁Hollywood	-8.23571
▁American	-8.23678
▁let	-8.23691
▁need	-8.24206
▁looks	-8.24496
▁effects	-8.24614
▁G	-8.25001
▁L	-8.25311
▁women	-8.25514
▁black	-8.26195
▁our	-8.26328
▁played	-8.26435
▁shows	-8.26536
▁For	-8.26743
(	-8.26889
▁nice	-8.27178
▁half	-8.27513
▁under	-8.27592
▁everyone	-8.28209
ist	-8.28264
ne	-8.28288
▁watched	-8.28359
▁seeing	-8.28511
▁idea	-8.28635
▁camera	-8.28912
v	-8.29254
▁run	-8.29499
▁day	-8.29738
▁tell	-8.30275
ation	-8.30326
▁fan	-8.30846
▁person	-8.31001
▁enjoy	-8.31133
▁mean	-8.31588
▁awful	-8.31683
▁later	-8.31699
▁himself	-8.3235
▁year	-8.32465
to	-8.32622
▁sex	-8.32697
▁given	-8.32725
▁3	-8.32956
▁rest	-8.33019
▁boring	-8.33053
▁true	-8.33082
at	-8.33176
▁line	-8.33259
▁One	-8.33419
▁To	-8.33647
▁seem	-8.33793
▁wasn	-8.34026
▁laugh	-8.34151
▁b	-8.34455
▁home	-8.34487
P	-8.34518
ive	-8.35043
R	-8.35076
▁else	-8.35207
ies	-8.35338
",	-8.3562
▁audience	-8.36044
▁high	-8.36186
▁10	-8.36473
▁star	-8.36554
▁left	-8.36675
▁along	-8.37385
▁truly	-8.37415
▁entertaining	-8.37485
▁used	-8.37736
▁couple	-8.38162
▁ga	-8.38292
▁care	-8.38889
▁production	-8.38954
▁completely	-8.39098
▁No	-8.39169
▁wrong	-8.39678
▁dead	-8.39693
▁father	-8.39695
▁O	-8.39837
▁second	-8.39887
▁recommend	-8.39983
▁performances	-8.40266
z	-8.40396
is	-8.40452
▁head	-8.4076
▁kids	-8.40905
il	-8.40915
▁house	-8.41323
▁p	-8.41736
not	-8.41806
▁THE	-8.4202
um	-8.42079
▁takes	-8.42104
▁shot	-8.42371
ish	-8.42535
▁cinema	-8.42733
▁short	-8.4276
▁absolutely	-8.42819
N	-8.43302
▁won	-8.43581
▁budget	-8.43669
▁poor	-8.44041
▁stupid	-8.44309
▁until	-8.44341
▁sort	-8.44355
▁itself	-8.44427
▁attempt	-8.44506
."	-8.46011
▁instead	-8.46015
▁understand	-8.46088
▁start	-8.46149
▁leave	-8.46346
▁co	-8.46464
▁war	-8.46545
▁All	-8.46924
▁bring	-8.47004
▁R	-8.47371
▁less	-8.47427
w	-8.47871
up	-8.48088
▁face	-8.48164
ma	-8.48196
▁mother	-8.48413
▁case	-8.48419
went	-8.48839
ul	-8.4897
▁drama	-8.49207
▁terrible	-8.4924
▁John	-8.49305
ry	-8.49631
▁art	-8.49647
▁beautiful	-8.49734
ir	-8.49835
▁couldn	-8.49982
▁simply	-8.5008
▁However	-8.50165
▁name	-8.50384
▁once	-8.50664
▁Not	-8.50843
▁hope	-8.5088
▁next	-8.50928
▁friend	-8.51187
▁perfect	-8.51434
M	-8.51949
▁close	-8.52522
▁style	-8.52786
ting	-8.52888
O	-8.53102
▁near	-8.53546
▁moments	-8.53636
▁wonderful	-8.53705
▁men	-8.54103
K	-8.54131
▁low	-8.54309
▁against	-8.54472
▁friends	-8.54646
G	-8.54695
▁everything	-8.55291
▁supposed	-8.55389
ment	-8.5563
▁death	-8.56008
▁small	-8.56169
▁children	-8.56192
▁night	-8.56291
▁My	-8.56888
age	-8.56929
▁human	-8.56933
ia	-8.57287
▁hit	-8.57493
▁remember	-8.57537
▁top	-8.57953
▁dialogue	-8.57983
▁At	-8.58022
▁town	-8.58367
▁title	-8.58798
▁game	-8.58881
▁Mr	-8.59216
▁definitely	-8.59854
▁Man	-8.59971
id	-8.60067
▁live	-8.60564
▁came	-8.6065
▁amazing	-8.60757
▁fine	-8.6077
F	-8.60942
▁classic	-8.61089
If	-8.61296
▁full	-8.61482
▁Well	-8.61675
▁guess	-8.61701
▁waste	-8.62129
L	-8.622
ter	-8.62418
te	-8.62561
▁humor	-8.62621
▁wait	-8.62659
▁getting	-8.62816
▁--	-8.62895
▁car	-8.63581
▁New	-8.63609
▁matter	-8.63614
▁early	-8.63647
▁either	-8.63649
▁Whi	-8.63674
▁quality	-8.64615
▁however	-8.64652
▁problem	-8.64704
▁side	-8.6514
ought	-8.65222
▁lines	-8.6551
▁favorite	-8.65566
▁Even	-8.65655
▁flick	-8.65696
▁wanted	-8.65775
▁felt	-8.66579
ful	-8.66584
▁white	-8.66613
▁maybe	-8.66638
▁doing	-8.66727
▁sound	-8.66848
▁stars	-8.67313
▁horrible	-8.67556
▁worse	-8.67556
▁genre	-8.67556
▁heart	-8.67621
▁example	-8.67712
na	-8.68071
▁score	-8.6857
▁video	-8.68633
▁picture	-8.68782
▁His	-8.69005
▁seemed	-8.69208
▁experience	-8.6931
be	-8.69963
▁boy	-8.69976
▁feeling	-8.70143
▁expect	-8.70597
▁stuff	-8.70621
▁fans	-8.70648
▁Some	-8.70786
!<	-8.71243
out	-8.71382
ng	-8.71638
▁already	-8.71659
▁several	-8.71659
▁After	-8.71741
li	-8.71965
tally	-8.72396
▁today	-8.72547
▁group	-8.72711
▁H	-8.72721
ent	-8.72782
▁N	-8.73289
▁K	-8.73477
▁school	-8.73819
▁etc	-8.74104
▁kid	-8.74193
▁able	-8.74851
▁On	-8.74934
H	-8.75061
▁cut	-8.75078
▁heard	-8.75274
▁c	-8.75406
▁stop	-8.75462
▁J	-8.7586
▁killer	-8.76129
sh	-8.76273
▁final	-8.76416
▁piece	-8.76439
am	-8.76671
▁direction	-8.7706
▁others	-8.77087
ro	-8.77311
▁type	-8.77553
▁dark	-8.77983
!!	-8.78009
ta	-8.78061
▁hilarious	-8.78148
▁extremely	-8.78205
▁liked	-8.78221
▁although	-8.78264
▁e	-8.78936
▁lost	-8.79278
▁husband	-8.79282
▁tries	-8.79285
▁hand	-8.79329
▁With	-8.79419
ling	-8.79428
*	-8.79525
▁career	-8.79611
he	-8.79754
de	-8.7995
▁wonder	-8.80233
▁voice	-8.80426
▁throughout	-8.80466
▁based	-8.80511
▁happened	-8.80777
▁5	-8.80848
▁light	-8.81135
▁writing	-8.81557
▁beginning	-8.81558
▁enjoyed	-8.823
▁Then	-8.82347
▁add	-8.82423
ow	-8.82465
▁act	-8.82505
W	-8.82539
▁directed	-8.8303
▁finally	-8.83094
▁talent	-8.83545
▁Of	-8.83762
▁chance	-8.83898
ck	-8.83989
▁loved	-8.84273
▁starts	-8.84466
▁strange	-8.84474
▁son	-8.85008
▁important	-8.85087
▁history	-8.85088
▁daughter	-8.85166
▁taken	-8.85466
!!!	-8.85709
▁past	-8.85713
▁strong	-8.85772
▁major	-8.86292
▁ridiculous	-8.86294
▁lack	-8.865
▁fight	-8.86605
▁parts	-8.87047
▁An	-8.87158
but	-8.87161
▁learn	-8.87511
▁murder	-8.87643
▁Also	-8.87653
▁talking	-8.8798
3	-8.8805
▁entire	-8.88393
▁slow	-8.88407
ian	-8.88648
▁evil	-8.88747
▁self	-8.88832
▁written	-8.88874
▁body	-8.88965
me	-8.89098
▁gay	-8.89137
▁deal	-8.89553
▁often	-8.89594
▁sad	-8.89759
▁lives	-8.89997
▁behind	-8.89997
▁local	-8.89998
▁stories	-8.89999
▁m	-8.90195
▁guys	-8.90197
▁order	-8.90206
▁looked	-8.90434
▁called	-8.90477
▁view	-8.90519
In	-8.90565
▁t	-8.90663
▁review	-8.90815
un	-8.90826
▁comic	-8.90917
nt	-8.90919
▁episode	-8.90981
▁girls	-8.91058
▁wish	-8.91178
▁child	-8.91232
▁late	-8.91293
▁straight	-8.91298
ol	-8.91401
▁eyes	-8.91868
▁brilliant	-8.92205
ad	-8.92362
▁st	-8.92502
▁female	-8.92544
▁York	-8.92544
▁somewhat	-8.92623
▁hold	-8.92623
x	-8.92634
▁hell	-8.92657
▁gore	-8.93063
▁De	-8.93416
ine	-8.93469
▁obvious	-8.93519
▁1	-8.93647
▁violence	-8.93842
▁myself	-8.93859
▁	-8.93871
▁throw	-8.93881
▁How	-8.94062
ton	-8.94176
der	-8.94256
spite	-8.94513
▁ask	-8.94532
like	-8.94723
▁blood	-8.94982
▁moment	-8.95014
!"	-8.95023
▁check	-8.9516
▁dialog	-8.95165
▁says	-8.96177
▁knew	-8.96491
▁happens	-8.96535
▁...	-8.96576
fi	-8.96957
▁highly	-8.97134
▁ends	-8.9723
▁works	-8.97492
ever	-8.97619
▁opinion	-8.97843
▁viewer	-8.97897
time	-8.9791
▁events	-8.98063
ate	-8.98251
▁stand	-8.98568
▁personal	-8.98873
▁possible	-8.99213
▁themselves	-8.99213
▁annoying	-8.99251
▁hero	-8.99272
▁perhaps	-8.99304
▁happen	-8.99487
▁Don	-8.99515
▁killed	-8.99654
▁thinking	-8.99676
There	-8.99825
▁wouldn	-8.99851
▁wants	-9.00058
▁shown	-9.0011
▁problems	-9.00431
▁ago	-9.00536
▁cheap	-9.00601
▁kill	-9.00707
▁seriously	-9.00915
▁interest	-9.00953
▁Be	-9.01007
no	-9.01259
▁mention	-9.01579
one	-9.01656
▁surprise	-9.01743
▁actress	-9.01918
▁across	-9.0201
▁similar	-9.02014
▁cool	-9.02094
▁took	-9.02208
▁non	-9.02213
▁Now	-9.02263
▁clearly	-9.02293
▁God	-9.0231
But	-9.02839
pe	-9.0286
ably	-9.02864
Y	-9.02928
▁complete	-9.03094
ard	-9.03132
▁silly	-9.03439
▁huge	-9.03439
▁power	-9.03439
▁simple	-9.03441
▁decent	-9.03442
▁odd	-9.035
▁Why	-9.03555
▁writer	-9.03636
et	-9.03862
tion	-9.0392
▁saying	-9.03972
▁Al	-9.04587
▁ex	-9.04643
▁realize	-9.04652
im	-9.04783
▁French	-9.04888
▁novel	-9.04889
▁country	-9.04902
▁happy	-9.0492
▁comment	-9.04984
▁aren	-9.0505
▁age	-9.05395
▁none	-9.05447
ther	-9.0553
▁figure	-9.0554
▁call	-9.05983
lo	-9.05993
▁haven	-9.06094
▁Ha	-9.06155
▁attention	-9.06358
▁stay	-9.06366
▁spend	-9.06383
▁enjoyable	-9.06434
▁break	-9.06471
▁brother	-9.06488
▁relationship	-9.06498
▁due	-9.06996
ster	-9.07019
▁known	-9.07402
▁tale	-9.07728
▁color	-9.07851
▁running	-9.07853
▁herself	-9.07882
▁Black	-9.07903
▁reality	-9.07997
ant	-9.08483
▁parents	-9.08573
side	-9.08693
nd	-9.08741
▁U	-9.09157
▁jokes	-9.09169
▁large	-9.09266
vi	-9.09347
▁crap	-9.09498
▁days	-9.09505
▁sequel	-9.09593
▁La	-9.09881
of	-9.09956
1	-9.09996
ach	-9.10054
U	-9.10091
▁elements	-9.10367
▁ten	-9.10404
co	-9.10483
▁4	-9.10493
▁usual	-9.1056
▁cover	-9.10615
▁roles	-9.10756
▁decide	-9.10825
▁police	-9.10875
▁Jack	-9.10895
▁living	-9.10905
▁above	-9.10906
▁basically	-9.10909
▁told	-9.10939
▁disappointed	-9.11
▁room	-9.11003
▁forget	-9.11138
▁effort	-9.11142
▁con	-9.11269
▁word	-9.11298
▁obviously	-9.11323
ating	-9.11358
▁save	-9.11712
▁hate	-9.11773
ger	-9.11992
▁80	-9.12094
▁soon	-9.1213
▁serious	-9.1218
▁Co	-9.12234
▁America	-9.1232
▁business	-9.12494
▁realistic	-9.12508
▁turns	-9.12516
▁sorry	-9.12542
▁stage	-9.12552
▁James	-9.12572
▁Just	-9.12937
▁dog	-9.1297
▁begins	-9.13017
ary	-9.13294
▁killing	-9.13452
4	-9.13554
▁Tom	-9.13652
▁class	-9.13842
▁fall	-9.1394
va	-9.1401
▁tried	-9.14055
▁modern	-9.14055
▁future	-9.14057
▁Michael	-9.1409
▁OK	-9.14189
▁involved	-9.1419
ism	-9.14326
V	-9.14379
▁level	-9.14388
▁opening	-9.14503
▁hear	-9.14531
▁cop	-9.14607
em	-9.14642
uck	-9.14645
▁songs	-9.14755
▁deliver	-9.14965
▁sets	-9.15113
▁words	-9.15361
▁includ	-9.15381
mo	-9.15447
▁pre	-9.15486
ley	-9.15569
▁material	-9.15667
▁taking	-9.15672
▁bunch	-9.15676
▁sexual	-9.15678
▁r	-9.15705
▁single	-9.15724
▁exactly	-9.15762
▁change	-9.15772
▁except	-9.15794
▁feature	-9.15896
▁musical	-9.15901
▁Robert	-9.16033
▁message	-9.1606
▁Bo	-9.16063
▁actual	-9.16961
all	-9.17018
▁V	-9.17301
▁suspense	-9.17312
▁English	-9.17322
▁George	-9.17364
▁lame	-9.17394
for	-9.17595
▁Or	-9.17615
son	-9.18251
▁Fro	-9.18307
▁Ro	-9.18508
who	-9.18772
	-9.18973
▁mix	-9.18973
▁box	-9.18983
▁Richard	-9.18999
▁Paul	-9.19082
▁remind	-9.19216
▁released	-9.19266
tic	-9.19808
led	-9.19877
▁mess	-9.20082
▁release	-9.2043
▁theater	-9.20548
line	-9.20553
▁television	-9.20669
▁cinematography	-9.20674
dy	-9.20695
▁pass	-9.2071
istic	-9.20745
giving	-9.20806
▁rich	-9.20815
▁Ma	-9.2084
▁using	-9.20994
▁decided	-9.21047
▁coming	-9.21076
▁hot	-9.2111
▁leads	-9.21285
▁sequence	-9.21288
▁rent	-9.2131
▁effect	-9.21318
▁hour	-9.21369
▁talk	-9.21457
▁Who	-9.21504
▁f	-9.21719
▁sequences	-9.21765
2	-9.21847
▁dance	-9.22381
▁animation	-9.22392
▁sub	-9.22398
▁believable	-9.22406
▁easily	-9.22481
kept	-9.2269
▁doubt	-9.22697
▁points	-9.22823
As	-9.22825
▁direct	-9.22968
▁20	-9.22971
if	-9.23778
▁miss	-9.23803
And	-9.23962
▁clear	-9.23995
▁period	-9.24147
▁masterpiece	-9.24147
▁unique	-9.24152
▁vari	-9.24154
▁appears	-9.24157
▁background	-9.24158
▁drive	-9.24236
▁scary	-9.24282
▁storyline	-9.24299
▁present	-9.24325
▁total	-9.2433
▁male	-9.24364
▁particularly	-9.24523
▁usually	-9.2455
▁named	-9.24769
▁worked	-9.24862
▁number	-9.24863
▁Ca	-9.24888
ring	-9.2498
▁laughs	-9.2576
▁fantastic	-9.25932
▁alone	-9.25936
▁slight	-9.25959
▁please	-9.25996
▁somehow	-9.26025
▁meant	-9.26146
▁fit	-9.2615
")	-9.26251
▁question	-9.26757
rs	-9.26837
ig	-9.2694
▁mo	-9.27144
▁consider	-9.27286
▁typical	-9.27386
ance	-9.27408
▁post	-9.27458
▁Bill	-9.27552
▁difficult	-9.27725
▁fast	-9.27728
▁Film	-9.27751
▁middle	-9.27752
▁studio	-9.27764
▁yourself	-9.27765
▁dull	-9.27773
▁shame	-9.27781
▁Peter	-9.27884
▁Ne	-9.27904
!)	-9.27952
,"	-9.28032
ud	-9.28171
▁move	-9.28459
do	-9.28511
▁expected	-9.28547
▁mis	-9.28629
▁buy	-9.29081
▁features	-9.2913
▁suggest	-9.29136
▁St	-9.29436
go	-9.29469
▁working	-9.29473
ba	-9.29487
▁atmosphere	-9.29602
▁genuine	-9.29602
▁truth	-9.29602
▁predictable	-9.29608
▁pure	-9.29617
▁sometimes	-9.2964
▁documentary	-9.29647
▁weak	-9.29677
▁editing	-9.29701
▁average	-9.29855
▁wear	-9.30163
ick	-9.30451
▁result	-9.30497
▁offer	-9.30792
▁deep	-9.30972
ct	-9.31136
▁emotional	-9.31159
▁previous	-9.31489
▁means	-9.31529
▁eye	-9.31546
▁tells	-9.31604
▁Yes	-9.317
▁feels	-9.31702
▁rating	-9.31757
▁among	-9.31852
▁avoid	-9.31958
▁Sa	-9.32147
▁situation	-9.32504
▁monster	-9.32525
▁Me	-9.32771
ha	-9.32805
ho	-9.32825
▁falls	-9.32959
ally	-9.33198
ut	-9.33203
▁mostly	-9.3334
▁cheesy	-9.33412
▁prove	-9.33441
▁track	-9.33449
▁culture	-9.33471
mp	-9.336
▁gone	-9.33607
▁g	-9.33644
▁Dr	-9.34117
▁Re	-9.34253
▁bar	-9.34593
com	-9.34769
▁pay	-9.34865
▁pick	-9.34993
▁general	-9.35027
▁song	-9.35052
▁provide	-9.35066
ty	-9.3512
▁prison	-9.35187
▁four	-9.35385
▁entertainment	-9.35397
▁portrayal	-9.35402
▁Oscar	-9.35417
▁hair	-9.35437
▁Maybe	-9.35462
?)	-9.35534
ated	-9.35535
▁created	-9.35653
▁focus	-9.3568
▁interested	-9.36008
bo	-9.36243
▁d	-9.36254
▁dis	-9.3636
▁Le	-9.36415
ey	-9.36522
▁hours	-9.36649
6	-9.36726
What	-9.36747
day	-9.36849
▁*	-9.36971
▁Her	-9.37125
▁grow	-9.37243
▁premise	-9.37373
▁easy	-9.37373
▁smart	-9.37374
▁language	-9.37392
▁screenplay	-9.37394
▁romantic	-9.37418
▁fell	-9.37427
▁city	-9.37431
▁setting	-9.37453
▁Although	-9.37488
▁entirely	-9.37949
nother	-9.38112
op	-9.38282
▁started	-9.38525
▁shots	-9.38603
way	-9.38622
5	-9.38694
▁particular	-9.39062
▁state	-9.39227
▁count	-9.39309
▁beyond	-9.39414
▁earlier	-9.39414
▁silent	-9.39414
▁NOT	-9.39419
▁British	-9.39419
▁success	-9.39424
▁First	-9.39538
ke	-9.39712
▁reasons	-9.4028
ted	-9.40424
▁upon	-9.40529
▁credit	-9.40754
▁begin	-9.40769
▁theme	-9.40771
▁sit	-9.41054
ign	-9.41123
▁agree	-9.41191
▁normal	-9.41213
▁create	-9.41273
▁catch	-9.41322
▁comments	-9.41343
▁bizarre	-9.41497
▁third	-9.41497
▁nature	-9.415
▁flat	-9.41515
▁describe	-9.41516
▁Harry	-9.41521
▁thriller	-9.41672
ast	-9.4176
▁reviews	-9.41941
▁free	-9.41993
▁public	-9.42116
▁form	-9.42479
▁expecting	-9.4276
▁subject	-9.42856
▁win	-9.43057
▁Ho	-9.43276
▁laughing	-9.43318
▁lose	-9.43403
J	-9.43436
All	-9.43454
long	-9.43567
▁list	-9.43612
▁team	-9.43625
lan	-9.43685
▁moving	-9.43686
▁reading	-9.43705
▁pointless	-9.43768
▁forced	-9.43812
▁portrayed	-9.43831
▁Oh	-9.43873
hi	-9.43878
▁cute	-9.43973
▁air	-9.44233
ily	-9.44293
movie	-9.44462
▁knows	-9.44475
▁19	-9.44699
ub	-9.45091
7	-9.45095
▁cartoon	-9.45121
which	-9.45174
▁nor	-9.45329
ped	-9.4559
My	-9.45758
▁admit	-9.45797
▁computer	-9.45799
▁soundtrack	-9.45799
▁sister	-9.45799
▁married	-9.458
▁tension	-9.458
▁development	-9.45805
▁spent	-9.4581
▁memorable	-9.45831
▁clever	-9.4584
▁David	-9.45848
▁five	-9.45863
▁bored	-9.45878
▁open	-9.45899
▁dramatic	-9.45925
old	-9.4595
You	-9.46122
▁copy	-9.4613
▁War	-9.4614
▁surprised	-9.46262
▁episodes	-9.46285
▁pro	-9.46448
▁cat	-9.46474
▁sh	-9.46531
we	-9.46657
▁poorly	-9.46778
▁happening	-9.46784
▁towards	-9.46991
▁twist	-9.4701
▁Mi	-9.47086
▁draw	-9.47382
▁zombie	-9.47409
off	-9.47546
▁honest	-9.47661
▁ways	-9.47709
é	-9.48021
▁imagine	-9.48021
▁purpose	-9.48021
▁romance	-9.48021
▁nudity	-9.48021
▁dumb	-9.48021
▁footage	-9.48026
ang	-9.48051
▁European	-9.48076
▁suit	-9.48086
▁Do	-9.48096
▁era	-9.48112
▁Unfortunately	-9.48128
▁Like	-9.48184
ler	-9.48202
▁recently	-9.48232
▁8	-9.48251
by	-9.48347
▁la	-9.48397
▁supporting	-9.4841
▁forward	-9.48445
▁superb	-9.48608
▁7	-9.49202
▁Let	-9.49261
▁King	-9.49326
▁Ta	-9.49341
▁9	-9.49434
▁gun	-9.49441
`	-9.49659
work	-9.49672
▁aspect	-9.49744
▁walk	-9.49747
▁adult	-9.4975
▁Se	-9.49812
▁cause	-9.50111
▁Mo	-9.5027
▁intelligent	-9.50294
▁plenty	-9.50294
▁possibly	-9.50294
▁society	-9.50294
▁mystery	-9.50294
▁amusing	-9.50294
▁detective	-9.50296
▁Charlie	-9.5033
▁girlfriend	-9.50334
▁otherwise	-9.50342
▁battle	-9.50384
▁anyway	-9.50394
▁concept	-9.50405
▁overall	-9.50407
▁US	-9.50453
▁powerful	-9.50474
▁William	-9.50512
▁Pa	-9.50597
mer	-9.50769
▁follow	-9.51008
▁fails	-9.51212
▁fill	-9.51237
▁ma	-9.51297
▁manages	-9.51548
▁explain	-9.51606
qu	-9.51838
well	-9.52049
po	-9.52193
▁suppose	-9.52324
▁gr	-9.52392
▁beat	-9.52432
▁wrote	-9.52619
▁fresh	-9.52619
▁remake	-9.52619
▁heavy	-9.52619
▁exciting	-9.52621
▁fear	-9.52631
▁IMDb	-9.52642
▁photography	-9.52711
▁adventure	-9.52731
▁Most	-9.52812
lin	-9.52845
▁whatever	-9.52887
▁fairly	-9.52924
▁yes	-9.52935
▁law	-9.52949
▁Star	-9.53113
▁former	-9.53338
ner	-9.53503
▁Li	-9.53537
▁70	-9.53578
▁acted	-9.53705
pp	-9.5395
▁party	-9.54138
▁Go	-9.54147
▁w	-9.54148
▁die	-9.54447
▁secret	-9.54615
da	-9.54917
▁rock	-9.54999
▁World	-9.55
▁amount	-9.55
▁dream	-9.55
▁sweet	-9.55
▁potential	-9.55001
▁kick	-9.55007
ay	-9.55045
▁mid	-9.55058
▁crazy	-9.55071
▁store	-9.55097
▁gang	-9.5512
▁Joe	-9.55729
▁viewing	-9.56187
▁Na	-9.56338
▁discover	-9.56736
▁showing	-9.56873
che	-9.56906
ka	-9.57005
▁villain	-9.57036
▁value	-9.57056
▁date	-9.5717
▁genius	-9.57439
▁biggest	-9.57439
▁doctor	-9.57439
▁taste	-9.57439
▁became	-9.5744
▁convincing	-9.5744
▁serial	-9.57446
▁social	-9.57479
▁Joan	-9.57484
▁manner	-9.57498
▁Day	-9.57605
▁Watch	-9.57635
▁Lee	-9.579
▁en	-9.57904
▁tr	-9.57964
▁escape	-9.58017
▁needs	-9.58233
▁directing	-9.58317
?"	-9.58926
▁Here	-9.59013
▁include	-9.597
▁fire	-9.59722
oth	-9.59933
fer	-9.59933
▁spirit	-9.59937
▁mysterious	-9.59939
▁historical	-9.5994
▁mood	-9.5994
▁sci	-9.59977
▁solid	-9.59985
▁space	-9.60041
▁famous	-9.60092
▁unfortunately	-9.60101
▁apparently	-9.60148
▁Van	-9.60164
▁Ra	-9.60198
▁tough	-9.60515
▁considered	-9.60565
▁following	-9.60619
ship	-9.6072
▁mentioned	-9.60902
▁talented	-9.60909
▁older	-9.61061
0	-9.61104
ture	-9.61105
▁situations	-9.61135
▁hands	-9.61188
even	-9.61772
▁inside	-9.61811
▁meet	-9.61896
▁Z	-9.62087
▁political	-9.62131
▁German	-9.62271
▁minute	-9.62416
▁earth	-9.62503
▁revenge	-9.62503
▁steal	-9.62504
▁marriage	-9.62506
▁impressive	-9.62508
▁road	-9.6251
▁Instead	-9.62516
▁season	-9.62522
▁eventually	-9.62582
▁Miss	-9.62592
▁race	-9.62614
▁Where	-9.62618
▁viewers	-9.62766
▁painful	-9.6288
▁filmed	-9.63424
ten	-9.63707
my	-9.63744
ors	-9.63812
ial	-9.63873
ney	-9.64082
▁within	-9.64124
▁v	-9.6422
▁deserves	-9.64227
▁pop	-9.64411
per	-9.64473
ier	-9.64701
▁remain	-9.64924
▁30	-9.65069
▁approach	-9.65135
▁beauty	-9.65135
▁convince	-9.65135
▁crime	-9.65135
▁incredibly	-9.65135
▁awesome	-9.65135
▁plain	-9.65135
▁available	-9.65141
▁share	-9.65145
▁respect	-9.65169
▁weird	-9.65182
▁lady	-9.65188
▁creepy	-9.6522
end	-9.65242
▁Other	-9.65284
coming	-9.65319
▁Rose	-9.65363
▁produced	-9.65458
▁plan	-9.6566
▁slowly	-9.65898
over	-9.65925
▁mouth	-9.65956
mi	-9.65977
ru	-9.66065
our	-9.66681
▁recommended	-9.66721
top	-9.66831
▁wasted	-9.6713
dom	-9.6721
gi	-9.67375
▁fair	-9.67389
▁natural	-9.6747
▁seeming	-9.67532
con	-9.67561
les	-9.67674
▁Dan	-9.67688
▁blow	-9.67708
▁popular	-9.67807
▁sleep	-9.67837
▁further	-9.67838
▁crew	-9.67849
▁relate	-9.67853
▁Bond	-9.67859
▁OF	-9.67903
▁front	-9.67937
▁Dead	-9.67958
▁laughable	-9.67974
▁joy	-9.68001
▁constantly	-9.6802
▁allow	-9.68031
ities	-9.68057
ak	-9.68104
▁sp	-9.68108
art	-9.68142
ile	-9.68207
ress	-9.68631
▁Mac	-9.68737
▁50	-9.68796
▁credits	-9.68814
▁accident	-9.69207
▁Lo	-9.69214
ca	-9.69215
▁fighting	-9.69239
▁se	-9.69269
▁moves	-9.69309
▁return	-9.69428
▁touch	-9.69439
▁train	-9.69737
volving	-9.69792
▁speak	-9.69981
▁charm	-9.70088
▁appear	-9.70136
▁fl	-9.70204
▁meaning	-9.70242
▁trouble	-9.70304
For	-9.70312
▁mere	-9.70324
▁pace	-9.70345
▁relationships	-9.70352
▁struggle	-9.70439
▁project	-9.70517
ious	-9.70613
▁familiar	-9.70615
▁glad	-9.70615
▁conclusion	-9.70618
▁influence	-9.70624
▁food	-9.7066
▁Henry	-9.70678
▁Christian	-9.70682
ight	-9.70685
▁Great	-9.70726
▁compelling	-9.7073
▁water	-9.70795
ING	-9.70889
▁greatest	-9.71208
▁shooting	-9.71223
den	-9.7136
cal	-9.71518
▁sexy	-9.71552
▁missing	-9.71637
▁beautifully	-9.71806
making	-9.71932
you	-9.71939
▁eat	-9.71966
On	-9.72251
▁Sam	-9.72256
▁directors	-9.72312
▁Car	-9.72316
▁6	-9.7234
▁area	-9.72419
▁aliens	-9.72566
ade	-9.7265
ker	-9.72714
▁shoot	-9.72827
ff	-9.72862
▁casting	-9.73147
uff	-9.73193
One	-9.73201
▁camp	-9.73234
▁mistake	-9.7333
▁notice	-9.73441
▁tragic	-9.73462
▁cross	-9.73471
▁college	-9.73472
▁Japanese	-9.73473
▁regular	-9.73473
▁jump	-9.73479
▁Jo	-9.73481
▁loose	-9.73482
▁brain	-9.7349
▁destroy	-9.73501
▁station	-9.73534
▁control	-9.73543
hose	-9.7357
▁games	-9.73663
▁Perhaps	-9.73666
▁teacher	-9.73688
▁roll	-9.73716
▁band	-9.73748
▁o	-9.73788
ill	-9.74059
▁Ed	-9.74079
▁touching	-9.74121
▁died	-9.74165
▁par	-9.74269
ble	-9.74284
▁soul	-9.74302
▁ride	-9.7467
▁perfectly	-9.74678
▁continue	-9.74796
▁red	-9.74815
▁issues	-9.7488
▁anti	-9.74936
▁questions	-9.75069
red	-9.75077
8	-9.75221
▁attack	-9.75265
ER	-9.7538
ail	-9.75551
ph	-9.75597
▁super	-9.75631
▁Sp	-9.75683
kin	-9.75755
right	-9.75804
▁reach	-9.75956
▁ended	-9.75997
AR	-9.76023
▁appreciate	-9.76102
▁chase	-9.76204
▁cliché	-9.76327
▁complex	-9.76381
▁Vi	-9.76383
▁treat	-9.76399
▁six	-9.76414
▁fantasy	-9.76414
▁likable	-9.76414
▁positive	-9.76414
▁imagination	-9.76414
▁Davis	-9.76414
▁latter	-9.76414
▁pathetic	-9.76414
▁caught	-9.7642
▁disappointment	-9.76422
▁slasher	-9.76438
▁immediately	-9.7644
▁unknown	-9.76441
▁Stone	-9.7645
▁claim	-9.76454
io	-9.76493
▁western	-9.765
▁Martin	-9.76519
▁sent	-9.76549
ga	-9.76558
▁suddenly	-9.7661
▁managed	-9.76615
▁utterly	-9.76642
▁disappointing	-9.76667
▁rate	-9.76817
▁outside	-9.76832
▁teen	-9.76834
os	-9.76867
▁singing	-9.76918
▁Will	-9.7692
▁apart	-9.77069
▁aspects	-9.77132
▁mad	-9.77137
▁alive	-9.77271
AN	-9.77301
▁imp	-9.7752
ki	-9.7768
▁acts	-9.77819
***	-9.77831
▁rape	-9.77913
mon	-9.78132
▁bother	-9.78138
▁Y	-9.78262
▁15	-9.78444
▁needed	-9.78498
▁members	-9.78573
Do	-9.7864
▁whom	-9.7864
▁finish	-9.78881
So	-9.79012
▁Can	-9.79077
▁rare	-9.79095
▁By	-9.79108
ake	-9.79147
▁trip	-9.79174
▁sick	-9.79251
ions	-9.79412
▁Thomas	-9.79444
▁unusual	-9.79444
▁violent	-9.79444
▁Hitchcock	-9.79444
▁presence	-9.79444
▁content	-9.79444
▁baby	-9.79445
▁Western	-9.79446
▁disaster	-9.79446
▁gem	-9.79462
king	-9.79466
▁cold	-9.79469
▁Italian	-9.79494
▁Jason	-9.795
▁Scott	-9.79501
▁cult	-9.79505
so	-9.79508
▁century	-9.79513
▁common	-9.79532
▁loud	-9.79561
▁Good	-9.7957
▁emotion	-9.79608
▁accent	-9.79613
ns	-9.79651
▁scared	-9.79654
▁City	-9.79699
▁Still	-9.79704
▁standard	-9.7971
▁mark	-9.79775
▁god	-9.79785
▁door	-9.7982
▁carrie	-9.79981
▁lo	-9.80367
ue	-9.8053
star	-9.80746
hy	-9.80774
ack	-9.80976
▁("	-9.81252
▁Bob	-9.81261
▁laughed	-9.81387
ittle	-9.81567
De	-9.81706
what	-9.81751
▁record	-9.81919
with	-9.81989
ah	-9.82001
▁effective	-9.82246
▁travel	-9.82302
▁moral	-9.82313
▁exist	-9.82359
this	-9.82425
▁write	-9.82459
oo	-9.82467
▁writers	-9.82475
▁porn	-9.82493
ecause	-9.82507
▁basic	-9.82561
▁Lloyd	-9.82569
▁company	-9.82569
▁garbage	-9.82569
▁okay	-9.82569
▁Disney	-9.82569
▁affair	-9.82569
▁depth	-9.82569
▁difference	-9.8257
▁neither	-9.82571
▁indeed	-9.82583
▁stick	-9.8259
▁land	-9.8259
▁fake	-9.82615
▁intended	-9.82619
▁Night	-9.8267
▁test	-9.82679
▁inspired	-9.82691
.....	-9.82711
▁bank	-9.82725
▁Allen	-9.82757
▁High	-9.82763
▁Director	-9.82781
▁disturbing	-9.82818
▁ground	-9.82824
▁compared	-9.82839
▁developed	-9.82842
▁began	-9.82845
▁Though	-9.82887
▁send	-9.82974
ice	-9.82993
play	-9.83116
▁folks	-9.83175
her	-9.83207
▁sign	-9.83338
....	-9.84113
ber	-9.84237
fu	-9.8442
ized	-9.84453
ft	-9.84586
▁tape	-9.8484
tal	-9.84846
ide	-9.85133
▁hang	-9.85173
▁Jane	-9.85187
ric	-9.85201
▁display	-9.85332
▁master	-9.85504
land	-9.85529
▁telling	-9.85568
▁spoil	-9.8568
ection	-9.85707
▁connect	-9.85724
▁rescue	-9.85795
▁tragedy	-9.85795
▁giant	-9.85795
▁government	-9.85796
▁impossible	-9.85826
▁Charles	-9.85847
▁paid	-9.85863
▁minor	-9.85869
▁Mc	-9.85898
▁Gene	-9.85931
▁quickly	-9.85999
▁failed	-9.86003
▁scenery	-9.86045
▁soft	-9.86054
▁Boy	-9.86278
▁joke	-9.86289
▁Too	-9.86361
▁building	-9.86372
act	-9.86442
ze	-9.86488
▁speaking	-9.86525
▁ball	-9.86563
▁twists	-9.86703
ee	-9.86815
▁po	-9.86969
▁90	-9.87025
▁Mor	-9.87043
▁younger	-9.87065
▁Did	-9.87079
▁Che	-9.87104
▁starr	-9.8721
▁process	-9.87226
▁worthy	-9.87399
▁knowing	-9.87629
ory	-9.879
▁filmmakers	-9.88077
▁nu	-9.88183
▁helped	-9.88413
good	-9.88505
To	-9.88599
that	-9.88734
▁pain	-9.88997
▁absurd	-9.89095
▁thin	-9.89121
▁confusing	-9.89128
▁suspect	-9.89128
▁accurate	-9.89128
▁desperate	-9.89128
▁regard	-9.8913
▁generation	-9.89135
▁adaptation	-9.89139
▁Yet	-9.89143
▁commentary	-9.89154
▁Jones	-9.89155
▁Jim	-9.89159
▁Murphy	-9.89161
▁cops	-9.89164
▁wall	-9.8917
▁professional	-9.89181
▁Th	-9.89194
▁held	-9.89212
▁Very	-9.89309
j	-9.89403
▁Mary	-9.89449
▁meets	-9.8948
No	-9.89594
▁min	-9.89653
▁Overall	-9.89704
▁changed	-9.89752
▁Movie	-9.89755
▁addition	-9.89841
mar	-9.90032
▁`	-9.90071
fully	-9.90167
▁badly	-9.90216
▁lacks	-9.90229
▁longer	-9.90348
ping	-9.90417
ky	-9.9046
wi	-9.90536
light	-9.90709
▁opera	-9.90873
▁note	-9.90874
gar	-9.90898
▁leav	-9.90966
▁exception	-9.91138
▁rip	-9.91247
▁perform	-9.91495
ath	-9.9156
lu	-9.91588
▁represent	-9.91674
some	-9.91758
▁understanding	-9.91763
▁Ch	-9.91811
00	-9.91924
When	-9.91951
▁Cat	-9.92045
▁l	-9.92156
▁involve	-9.92258
▁achieve	-9.92558
▁drop	-9.92565
▁Crawford	-9.92576
▁VHS	-9.92576
▁empty	-9.92576
▁excuse	-9.92576
▁innocent	-9.92576
▁slapstick	-9.92576
▁remote	-9.92577
▁smile	-9.92577
▁comedies	-9.92577
▁comedic	-9.92578
▁spot	-9.92578
▁foreign	-9.92579
▁scientist	-9.9258
▁critics	-9.92581
▁tired	-9.92582
▁appearance	-9.92588
▁Indian	-9.92592
▁sword	-9.92593
▁channel	-9.9261
▁length	-9.92633
▁Julie	-9.92702
▁edge	-9.92743
▁detail	-9.92772
▁dress	-9.92865
▁product	-9.92869
▁X	-9.92901
▁slave	-9.92965
▁ideas	-9.93106
▁allowed	-9.9316
▁k	-9.93307
▁street	-9.93326
▁rented	-9.93504
Man	-9.93542
▁hop	-9.93612
▁hated	-9.93682
men	-9.93738
▁murdered	-9.9387
ward	-9.93942
▁Un	-9.93969
▁island	-9.94012
▁fully	-9.94108
He	-9.94125
▁students	-9.94705
ron	-9.95057
body	-9.95098
▁boys	-9.95257
▁fu	-9.95355
gra	-9.95365
_	-9.95436
▁sounds	-9.95468
That	-9.95523
▁support	-9.95528
▁sequels	-9.95619
she	-9.95793
nce	-9.95813
get	-9.95842
▁whe	-9.95885
▁office	-9.96021
played	-9.96025
▁unlike	-9.96036
▁Steve	-9.96094
▁village	-9.96134
▁erotic	-9.96137
▁funniest	-9.96148
▁pleasant	-9.96148
▁suicide	-9.96148
▁terrific	-9.96148
▁horse	-9.96148
▁double	-9.96148
▁commercial	-9.96149
▁vampire	-9.96149
▁1980	-9.9615
▁expectations	-9.9615
▁naked	-9.96151
▁impression	-9.96158
▁highlight	-9.96173
▁plus	-9.96173
▁complicated	-9.96183
▁everybody	-9.9619
▁agent	-9.96203
▁dancing	-9.96206
▁animated	-9.96229
▁push	-9.9623
▁plane	-9.9623
▁Please	-9.96276
▁market	-9.96295
▁ultimately	-9.96323
▁serve	-9.96335
▁pull	-9.96436
▁Sh	-9.96688
▁values	-9.96715
▁million	-9.96936
▁follows	-9.96975
▁step	-9.97087
tte	-9.9718
▁lived	-9.97316
▁rap	-9.97334
ical	-9.97567
▁sav	-9.97571
▁falling	-9.97574
ex	-9.97621
▁ill	-9.97847
cy	-9.98017
▁prefer	-9.98332
gu	-9.98471
▁Ben	-9.98484
ball	-9.98487
car	-9.98518
▁willing	-9.98722
how	-9.98835
gen	-9.99117
Overall	-9.99219
▁suffer	-9.9922
▁technical	-9.99476
▁recent	-9.99499
use	-9.99499
▁brothers	-9.99525
▁standards	-9.9956
▁emotions	-9.99562
▁Frank	-9.99581
tuck	-9.99734
▁crowd	-9.99852
▁ugly	-9.99852
▁comparison	-9.99852
▁quiet	-9.99853
▁machine	-9.99855
▁attractive	-9.99863
▁Wayne	-9.99879
▁Reno	-9.99902
▁unbelievable	-9.99907
▁themes	-9.99908
▁boss	-9.99917
▁partner	-9.99934
▁Patrick	-9.99963
▁model	-9.9999
▁equally	-10.0004
La	-10.0006
▁concerned	-10.0015
▁mom	-10.0019
▁Anyway	-10.0021
▁pa	-10.0025
▁Best	-10.0031
oh	-10.0031
▁field	-10.0035
▁cry	-10.0039
▁Time	-10.0043
▁appeared	-10.0046
▁creature	-10.0078
▁ship	-10.0079
An	-10.0085
9	-10.0088
▁zombies	-10.0089
ked	-10.009
▁di	-10.0096
▁Ba	-10.0104
▁site	-10.0117
▁added	-10.0133
▁ca	-10.0141
▁hat	-10.0176
lt	-10.0177
▁fat	-10.0192
▁Mar	-10.0197
▁lovely	-10.0205
▁match	-10.0215
▁shouldn	-10.0216
▁Con	-10.0236
▁center	-10.0238
▁bear	-10.024
▁driv	-10.0263
▁fr	-10.0264
▁places	-10.027
▁bus	-10.0282
▁details	-10.0295
illa	-10.0296
▁award	-10.0305
▁grace	-10.0309
back	-10.0315
▁See	-10.0326
▁surprising	-10.0334
ence	-10.034
▁Williams	-10.0346
▁n	-10.0347
▁trash	-10.0347
▁idiot	-10.0364
▁depict	-10.0365
▁chemistry	-10.037
▁conflict	-10.037
▁bottom	-10.037
▁favourite	-10.037
▁angry	-10.037
▁science	-10.037
▁tight	-10.0372
▁psychological	-10.0374
▁Chaplin	-10.0374
▁fashion	-10.0376
▁nowhere	-10.0379
▁kills	-10.038
▁Kevin	-10.0384
▁Young	-10.0386
ible	-10.0392
▁redeeming	-10.0393
▁force	-10.0396
▁independent	-10.0403
unk	-10.0407
ver	-10.0414
▁Mari	-10.0422
mme	-10.0428
▁Ri	-10.0462
war	-10.0466
▁week	-10.0474
▁choice	-10.0474
▁walking	-10.0477
▁sadly	-10.0482
▁member	-10.0482
▁costumes	-10.0491
▁sing	-10.0507
cher	-10.0521
Not	-10.0532
lip	-10.054
▁per	-10.0571
**	-10.061
erry	-10.0621
ure	-10.0674
▁Red	-10.0682
ave	-10.0693
▁bomb	-10.0707
budget	-10.0707
▁build	-10.0707
house	-10.0709
don	-10.0716
▁ruin	-10.0724
We	-10.0725
▁Every	-10.0736
Some	-10.0737
▁desire	-10.0738
▁Los	-10.0747
▁tone	-10.0755
▁wit	-10.0765
▁commit	-10.0767
▁psycho	-10.0769
▁Chinese	-10.077
▁Mexican	-10.077
▁behavior	-10.077
▁embarrassing	-10.077
▁encounter	-10.077
▁explanation	-10.077
▁festival	-10.077
▁frankly	-10.077
▁humour	-10.077
▁incredible	-10.077
▁Earth	-10.077
▁Girl	-10.077
▁brief	-10.077
▁sheriff	-10.077
▁outstanding	-10.077
▁convey	-10.077
▁brutal	-10.077
▁childhood	-10.0771
▁Enid	-10.0771
▁Everyone	-10.0771
▁trust	-10.0771
▁proud	-10.0772
▁wide	-10.0772
▁apartment	-10.0772
▁Mike	-10.0773
▁Green	-10.0773
▁thus	-10.0773
▁broken	-10.0774
▁Adam	-10.0775
▁anywhere	-10.0776
▁necessary	-10.0776
▁sitting	-10.0776
▁Laura	-10.0776
▁carry	-10.0779
▁showed	-10.0779
▁Bruce	-10.0782
▁literally	-10.0783
▁Asian	-10.0784
▁trailer	-10.079
▁March	-10.0792
▁climax	-10.0797
▁truck	-10.0804
▁Irish	-10.081
▁rarely	-10.0817
AL	-10.0827
bi	-10.0836
▁18	-10.0865
though	-10.0877
▁gags	-10.0885
▁rule	-10.0897
iness	-10.0898
Lo	-10.0902
▁books	-10.0904
▁victim	-10.0904
▁alien	-10.0906
▁San	-10.0919
▁makers	-10.0922
▁filmmaker	-10.0926
▁13	-10.0951
Ro	-10.0956
sha	-10.0969
▁cha	-10.0985
ank	-10.0989
▁producers	-10.1033
▁sc	-10.1045
▁victims	-10.1055
fe	-10.1057
▁ho	-10.1068
▁shock	-10.1091
▁Love	-10.1094
▁inter	-10.1096
▁pictures	-10.1097
horror	-10.1124
&	-10.1124
▁audiences	-10.1126
▁ti	-10.1131
▁Da	-10.1149
▁magic	-10.1151
▁th	-10.1167
▁clichés	-10.1168
▁visual	-10.1178
▁jail	-10.1185
▁combination	-10.1186
▁fascinating	-10.1186
▁gorgeous	-10.1186
▁hospital	-10.1186
▁journey	-10.1186
▁stunning	-10.1186
▁opposite	-10.1186
▁twenty	-10.1186
▁intense	-10.1187
▁hurt	-10.1187
▁formula	-10.1187
▁contrast	-10.1187
▁France	-10.1187
▁cell	-10.1187
▁blind	-10.1188
▁crappy	-10.1188
▁collection	-10.1188
ec	-10.1188
▁Harrison	-10.1189
panish	-10.119
▁current	-10.1191
▁Nick	-10.1191
▁enter	-10.1191
▁Gold	-10.1193
▁Everything	-10.1193
▁club	-10.1194
▁grand	-10.1194
▁African	-10.1195
▁Nothing	-10.1196
▁dreadful	-10.1198
▁damn	-10.1199
▁humorous	-10.1201
▁Sure	-10.1204
▁phone	-10.1215
▁fame	-10.1217
▁stands	-10.1219
lle	-10.122
▁key	-10.1226
▁cl	-10.1239
▁Mad	-10.1242
▁op	-10.1244
LY	-10.1249
▁Bad	-10.1258
air	-10.1263
▁oh	-10.1265
▁planet	-10.1274
ren	-10.128
▁dies	-10.1284
Be	-10.1287
▁meeting	-10.129
▁deserve	-10.1303
▁ba	-10.1308
▁decade	-10.1328
▁element	-10.1335
▁judge	-10.1344
▁sa	-10.1391
▁Bro	-10.1393
▁artistic	-10.1398
ja	-10.1404
nna	-10.1406
▁images	-10.1408
▁Cl	-10.1409
ise	-10.1411
▁IS	-10.144
▁portrays	-10.1449
▁talks	-10.1467
Ma	-10.1474
ana	-10.1479
▁****	-10.1482
▁theaters	-10.1486
eg	-10.149
▁Su	-10.1492
ina	-10.1507
▁Ru	-10.1516
▁starting	-10.1532
▁mental	-10.1541
▁NO	-10.1555
▁study	-10.1556
▁appeal	-10.1557
just	-10.1559
Now	-10.1563
bb	-10.1592
▁Big	-10.1599
▁receive	-10.16
▁capture	-10.1612
▁drunk	-10.1617
▁surreal	-10.162
▁subtle	-10.162
▁Street	-10.1621
▁creative	-10.1621
▁curious	-10.1621
▁evidence	-10.1621
▁responsible	-10.1621
▁lousy	-10.1621
▁Miller	-10.1621
▁Moore	-10.1621
▁insane	-10.1621
▁program	-10.1622
now	-10.1622
▁preview	-10.1622
▁paper	-10.1622
▁woods	-10.1623
▁spectacular	-10.1623
▁epic	-10.1624
▁floor	-10.1625
▁pleasure	-10.1626
▁occur	-10.1626
ically	-10.1628
▁seven	-10.163
▁Show	-10.1631
▁sl	-10.1636
▁author	-10.1636
▁Guy	-10.1643
▁Was	-10.1648
▁SPOILERS	-10.165
row	-10.1653
lm	-10.1656
▁ability	-10.1657
und	-10.1676
▁More	-10.1681
▁paced	-10.1685
▁noir	-10.1692
▁months	-10.1694
▁explained	-10.1708
▁ha	-10.1716
▁murderer	-10.1722
▁rated	-10.1725
▁finale	-10.173
ko	-10.1732
▁holes	-10.1734
▁presented	-10.1736
▁Col	-10.1741
▁missed	-10.1746
▁grade	-10.1756
gan	-10.1756
▁sum	-10.176
▁extra	-10.178
ame	-10.1784
▁animal	-10.1784
ock	-10.1789
ED	-10.1799
wn	-10.1805
▁thanks	-10.1823
▁producer	-10.1825
▁mu	-10.183
OR	-10.1835
▁monsters	-10.1837
▁ran	-10.1846
▁terms	-10.1852
lly	-10.1865
▁wondering	-10.1868
ize	-10.1879
nny	-10.1896
▁gu	-10.1908
▁Russia	-10.1913
ya	-10.1931
py	-10.1952
▁da	-10.1958
life	-10.1966
▁reveal	-10.1966
▁Wi	-10.1967
▁player	-10.1971
▁Ju	-10.1976
ept	-10.199
can	-10.1991
nyone	-10.1994
▁Sha	-10.1994
unch	-10.1994
▁awkward	-10.2011
▁Chris	-10.203
▁12	-10.204
▁absolute	-10.2041
night	-10.2041
TV	-10.2041
▁Jeff	-10.2041
▁thinks	-10.2045
▁homosexual	-10.2072
port	-10.2073
▁consist	-10.2074
▁1970	-10.2076
▁condition	-10.2076
▁device	-10.2076
▁target	-10.2076
▁England	-10.2076
▁prime	-10.2076
▁sacrifice	-10.2076
▁sympathetic	-10.2076
▁Monster	-10.2076
▁satire	-10.2076
▁superior	-10.2076
▁Connor	-10.2076
▁priest	-10.2076
▁promise	-10.2076
▁wooden	-10.2076
▁clean	-10.2076
▁zero	-10.2076
▁guilt	-10.2076
▁spell	-10.2076
▁grandfather	-10.2076
▁lawyer	-10.2076
▁intelligence	-10.2077
▁stock	-10.2077
▁dying	-10.2077
▁community	-10.2078
▁Fox	-10.2078
▁unnecessary	-10.208
▁Turner	-10.208
▁utter	-10.2081
▁flow	-10.2081
▁Howard	-10.2081
▁lone	-10.2081
▁confused	-10.2082
yo	-10.2083
▁Christopher	-10.2083
▁nonsense	-10.2083
▁blue	-10.2083
▁fish	-10.2084
▁anymore	-10.2084
▁loss	-10.2088
▁stretch	-10.2091
▁Look	-10.2092
▁born	-10.2095
▁Blue	-10.2095
▁robot	-10.2106
▁actresses	-10.2108
ump	-10.211
▁table	-10.2112
▁singer	-10.2113
Mar	-10.2114
▁introduced	-10.2121
▁metal	-10.2121
▁driver	-10.213
▁dated	-10.2136
▁May	-10.2139
▁li	-10.2141
▁portray	-10.2144
▁shocking	-10.2145
▁teach	-10.2154
▁tend	-10.2169
▁Gu	-10.2171
aging	-10.2182
rew	-10.2184
len	-10.2185
▁adults	-10.2187
▁Yu	-10.2191
▁Eric	-10.2195
▁Dur	-10.2202
ob	-10.2202
▁mission	-10.2211
▁divorce	-10.2225
▁flaws	-10.2235
▁interview	-10.2259
▁ready	-10.2262
▁student	-10.2263
▁Ford	-10.2288
▁Fred	-10.2295
▁cr	-10.2299
▁lacking	-10.2317
tch	-10.2325
▁y	-10.2346
gh	-10.2349
▁Dar	-10.2349
▁affect	-10.2352
!).	-10.2358
▁numbers	-10.2359
▁wanting	-10.2405
▁pe	-10.2415
yn	-10.2438
ned	-10.2453
law	-10.2457
▁streets	-10.2459
▁design	-10.2464
▁10.	-10.2468
Fi	-10.2468
▁news	-10.2486
field	-10.2488
screen	-10.2489
year	-10.249
Let	-10.2496
Well	-10.2497
▁listen	-10.2498
hu	-10.2498
▁apparent	-10.2517
▁successful	-10.2519
▁powers	-10.2543
▁Di	-10.2543
▁occasion	-10.2544
till	-10.2546
fa	-10.2548
▁survive	-10.2549
▁Gar	-10.2551
▁melodrama	-10.2551
▁vote	-10.2551
▁favor	-10.2552
▁belief	-10.2552
▁executed	-10.2552
▁puzzle	-10.2552
▁segment	-10.2552
▁shark	-10.2552
▁twice	-10.2552
▁worry	-10.2552
▁practical	-10.2552
▁regret	-10.2552
▁CGI	-10.2552
▁Christmas	-10.2552
▁Jean	-10.2552
▁Johnny	-10.2552
▁native	-10.2552
▁unrealistic	-10.2552
▁legend	-10.2552
▁cruel	-10.2552
▁rubbish	-10.2553
▁Edward	-10.2553
▁trade	-10.2553
▁refreshing	-10.2554
▁gangster	-10.2554
▁Robin	-10.2557
▁pile	-10.2558
▁knock	-10.256
▁Queen	-10.256
▁White	-10.2562
▁finest	-10.2563
▁People	-10.2563
▁Russell	-10.2563
▁personality	-10.2563
▁therefore	-10.2565
▁Which	-10.2566
▁impressed	-10.2566
▁debut	-10.2567
▁rental	-10.2572
▁bu	-10.2572
▁frightening	-10.2578
▁Mark	-10.258
▁du	-10.2585
▁Q	-10.2587
aving	-10.2595
▁vs	-10.2597
▁drinking	-10.26
▁shocked	-10.2605
▁endless	-10.2613
▁dad	-10.2613
▁subtitles	-10.2617
ify	-10.262
▁unintentional	-10.2625
▁Part	-10.263
▁generally	-10.2641
▁Band	-10.2642
▁factor	-10.2644
▁van	-10.2652
▁asks	-10.2655
▁moved	-10.2655
see	-10.2661
▁realized	-10.267
▁dollars	-10.2675
▁poster	-10.2683
ON	-10.2685
▁u	-10.2695
▁Ki	-10.2701
▁experienced	-10.2706
▁Val	-10.2709
▁sea	-10.2721
▁teenagers	-10.2731
rom	-10.2747
▁criminal	-10.2755
▁hu	-10.2763
▁Nazi	-10.2765
low	-10.2775
▁standing	-10.2777
ute	-10.2779
▁owner	-10.2786
▁lies	-10.2789
▁cameo	-10.2796
they	-10.2796
▁Ken	-10.2801
ew	-10.2807
chi	-10.281
▁aside	-10.2815
filled	-10.285
▁ja	-10.2868
ern	-10.2873
▁fe	-10.2882
▁changes	-10.2926
een	-10.2931
▁bo	-10.2976
▁likely	-10.2998
▁accept	-10.2999
especially	-10.3003
▁capab	-10.3003
RE	-10.3003
▁Hi	-10.3004
▁burn	-10.3007
▁cars	-10.3011
berg	-10.3025
▁luck	-10.303
▁delight	-10.3034
▁Wood	-10.3043
▁teenage	-10.3044
▁prepar	-10.305
▁fool	-10.3051
▁disappear	-10.3051
▁Canada	-10.3052
▁Family	-10.3052
▁Festival	-10.3052
▁depressing	-10.3052
▁families	-10.3052
▁mediocre	-10.3052
▁perspective	-10.3052
▁speech	-10.3052
▁system	-10.3052
▁terribly	-10.3052
▁urban	-10.3052
▁breath	-10.3052
▁memory	-10.3052
▁root	-10.3052
▁Sometimes	-10.3052
▁identity	-10.3052
▁boyfriend	-10.3052
▁Danny	-10.3052
▁Canadian	-10.3053
Don	-10.3053
Daniel	-10.3053
▁frame	-10.3053
▁Paris	-10.3053
read	-10.3054
▁winner	-10.3054
▁object	-10.3055
▁Max	-10.3055
▁Roger	-10.3056
▁insight	-10.3056
▁friendship	-10.3056
▁produce	-10.3056
▁impact	-10.3056
▁media	-10.3057
▁Horror	-10.3057
▁Sarah	-10.3058
▁cutting	-10.3063
▁marry	-10.3064
▁Really	-10.3064
▁Grant	-10.3065
▁remarkable	-10.3065
▁returns	-10.3066
▁humanity	-10.307
▁nobody	-10.3071
▁load	-10.3071
▁mini	-10.3072
IT	-10.3073
rd	-10.3073
▁delightful	-10.3075
???	-10.3076
▁reporter	-10.3076
▁blonde	-10.3077
▁mass	-10.3082
▁Hard	-10.3083
▁properly	-10.3084
▁sucked	-10.3085
▁forgive	-10.3087
▁Kid	-10.3093
▁forgotten	-10.3095
▁Ray	-10.3103
▁closer	-10.3112
▁pulled	-10.3116
▁Billy	-10.3119
▁seek	-10.3141
▁performer	-10.3142
▁End	-10.3146
▁followed	-10.3153
▁boo	-10.3159
▁charming	-10.3168
▁lower	-10.3169
▁picked	-10.3171
oc	-10.3188
Da	-10.3195
▁?	-10.3202
▁cartoons	-10.3212
▁Home	-10.3214
▁praise	-10.3234
cut	-10.3255
▁included	-10.326
▁forever	-10.3263
▁h	-10.3264
rate	-10.3277
▁trick	-10.3288
▁manage	-10.3309
▁remembered	-10.3312
▁dealing	-10.3313
▁contains	-10.3316
▁Si	-10.3321
▁40	-10.3322
▁Pi	-10.3326
▁Hell	-10.3332
OW	-10.3346
more	-10.3353
▁60	-10.3362
▁ro	-10.337
utch	-10.3388
▁sun	-10.3412
ven	-10.3421
lli	-10.3422
▁format	-10.3435
▁ring	-10.3439
+	-10.3451
▁mine	-10.3461
▁feelings	-10.347
cho	-10.348
sis	-10.348
They	-10.3491
ST	-10.3492
▁search	-10.3515
▁organ	-10.3522
▁whi	-10.3524
han	-10.3529
▁sudden	-10.3543
▁constant	-10.3543
▁toward	-10.3548
ou	-10.3559
▁torture	-10.3563
▁Far	-10.3564
mate	-10.3569
▁punch	-10.357
▁fiction	-10.3571
▁danger	-10.3575
▁spin	-10.3575
▁compare	-10.3576
stood	-10.3578
▁Godzilla	-10.3578
▁Nadja	-10.3578
▁advice	-10.3578
▁challenge	-10.3578
▁choose	-10.3578
▁contrived	-10.3578
▁individual	-10.3578
▁negative	-10.3578
▁offensive	-10.3578
▁religious	-10.3578
▁stereotypical	-10.3578
▁stumble	-10.3578
▁accus	-10.3578
▁strike	-10.3578
▁whatsoever	-10.3578
▁expert	-10.3578
▁wild	-10.3578
▁bodies	-10.3578
▁comedian	-10.3578
▁scheme	-10.3578
▁attitude	-10.3578
▁scale	-10.3578
▁court	-10.3579
▁nasty	-10.3579
▁barely	-10.3579
▁London	-10.3579
▁scenario	-10.3579
▁Gordon	-10.3579
▁Brown	-10.3579
▁lift	-10.3579
▁shadow	-10.3579
▁Simon	-10.3579
▁green	-10.3579
▁spoof	-10.3579
▁Sci	-10.3579
▁rough	-10.3579
ville	-10.358
changing	-10.358
▁narration	-10.358
▁crack	-10.358
▁Michelle	-10.358
▁hunt	-10.358
▁Todd	-10.3581
▁theatre	-10.3581
▁MST	-10.3582
▁II	-10.3584
▁shop	-10.3584
▁opportunity	-10.3584
▁bright	-10.3584
▁Douglas	-10.3587
▁elderly	-10.3587
▁sake	-10.3587
▁Norman	-10.3589
▁Qui	-10.3589
▁physical	-10.359
▁anime	-10.3591
▁round	-10.3592
▁im	-10.3593
▁dragg	-10.3594
▁Life	-10.3597
▁Our	-10.3597
▁Sean	-10.3599
▁Out	-10.3602
▁officer	-10.3611
ID	-10.3615
▁pol	-10.3616
▁grown	-10.3618
▁:	-10.3624
▁actions	-10.3633
▁hi	-10.3643
Since	-10.3653
▁finished	-10.3659
▁villains	-10.3667
▁normally	-10.3671
▁ideal	-10.3684
▁twisted	-10.369
beat	-10.3693
▁references	-10.37
▁seat	-10.37
▁training	-10.3701
▁sat	-10.3701
▁100	-10.3712
▁brilliantly	-10.373
▁murders	-10.3742
▁skill	-10.375
▁flop	-10.3751
uel	-10.3755
▁join	-10.3774
▁investigat	-10.3797
HA	-10.3832
ater	-10.3834
ound	-10.3838
▁answer	-10.3838
▁image	-10.3844
▁term	-10.3845
▁BE	-10.3847
▁contain	-10.3848
▁ver	-10.385
▁lovers	-10.3854
reak	-10.3859
▁Pu	-10.3865
▁fa	-10.3888
▁25	-10.3896
clear	-10.3904
▁Cop	-10.3943
▁visuals	-10.395
▁va	-10.3959
real	-10.3994
TH	-10.4043
▁visit	-10.4047
▁featur	-10.4052
▁replace	-10.4059
known	-10.4066
▁Tim	-10.4066
wise	-10.4067
▁surround	-10.407
Also	-10.4071
director	-10.4071
mark	-10.4071
something	-10.4071
film	-10.4073
▁concern	-10.4089
▁witness	-10.4091
▁Ya	-10.4097
▁quick	-10.4098
▁sole	-10.4114
▁proper	-10.4115
▁sell	-10.4123
▁price	-10.4131
▁safe	-10.4133
▁alter	-10.4134
▁Academy	-10.4134
▁Clouseau	-10.4134
▁according	-10.4134
▁clothes	-10.4134
▁criticism	-10.4134
▁franchise	-10.4134
▁morning	-10.4134
▁poignant	-10.4134
▁prejudice	-10.4134
▁protagonist	-10.4134
▁relative	-10.4134
▁skull	-10.4134
▁strength	-10.4134
▁thirty	-10.4134
▁thousand	-10.4134
dimensional	-10.4134
▁correct	-10.4134
▁separate	-10.4134
▁tribe	-10.4134
▁wedding	-10.4134
▁stunt	-10.4134
▁AND	-10.4134
▁civilization	-10.4134
▁instance	-10.4134
▁adopt	-10.4134
▁Prince	-10.4134
▁tele	-10.4134
▁description	-10.4134
▁shallow	-10.4134
▁essential	-10.4135
▁Scorsese	-10.4135
▁Kong	-10.4135
▁host	-10.4135
▁feet	-10.4135
▁Scream	-10.4136
▁motivation	-10.4138
▁prop	-10.4138
▁treatment	-10.4138
▁Pink	-10.4138
▁bland	-10.4139
▁Point	-10.4139
▁promising	-10.4147
▁spoke	-10.4147
▁stink	-10.4149
▁statement	-10.4149
rge	-10.4153
▁noise	-10.4153
▁Fin	-10.4162
story	-10.4164
ham	-10.4164
▁Two	-10.4165
▁Anna	-10.4167
▁greater	-10.417
▁deserved	-10.4177
▁West	-10.418
teen	-10.4184
▁revealed	-10.4191
head	-10.4193
▁ruined	-10.4198
▁sheer	-10.4201
rab	-10.421
▁press	-10.4224
▁bloody	-10.4237
▁higher	-10.4253
cing	-10.4271
▁pl	-10.4283
▁featured	-10.4287
lot	-10.4287
▁goal	-10.4287
Fa	-10.4293
▁dec	-10.4294
0%	-10.4295
▁Hu	-10.4302
▁Ms	-10.4312
▁reviewers	-10.4344
▁copie	-10.4345
bin	-10.4345
▁drags	-10.4348
ement	-10.435
nnie	-10.4353
▁leader	-10.4364
▁soldiers	-10.4365
pan	-10.4396
▁REAL	-10.442
set	-10.4421
ient	-10.4422
accidentally	-10.4426
▁flashback	-10.4428
▁graphic	-10.4428
Jo	-10.4438
▁ghost	-10.4438
▁parent	-10.4439
▁issue	-10.4441
▁continu	-10.4447
▁lighting	-10.445
arch	-10.4477
▁animals	-10.4504
▁Er	-10.4509
acy	-10.4556
rust	-10.4558
wa	-10.456
▁chas	-10.4563
▁guns	-10.4566
ipping	-10.4569
shot	-10.4572
▁creatures	-10.4574
rash	-10.461
ONE	-10.4613
bert	-10.4621
where	-10.4623
characterization	-10.4645
tty	-10.4646
▁photograph	-10.4651
▁dislike	-10.4651
under	-10.4654
▁complain	-10.4657
▁pretend	-10.4657
▁kiss	-10.4657
except	-10.4659
class	-10.4664
▁Any	-10.4666
although	-10.467
▁account	-10.4674
ging	-10.4676
▁insult	-10.4677
wood	-10.4694
▁Jess	-10.4697
▁exact	-10.4697
▁warm	-10.4707
▁discuss	-10.471
ik	-10.4711
▁express	-10.4716
▁Europe	-10.4717
▁Bambi	-10.4722
▁Quaid	-10.4722
▁church	-10.4722
▁disagree	-10.4722
▁horribly	-10.4722
▁knowledge	-10.4722
▁method	-10.4722
▁parody	-10.4722
▁plastic	-10.4722
▁religion	-10.4722
▁TCM	-10.4722
▁admire	-10.4722
▁maintain	-10.4722
▁technology	-10.4722
▁BAD	-10.4722
▁Phil	-10.4722
▁source	-10.4722
▁minimal	-10.4722
▁guard	-10.4722
▁timing	-10.4722
▁ashamed	-10.4722
▁nightmare	-10.4722
▁failure	-10.4722
▁strip	-10.4723
▁ticket	-10.4723
▁Otherwise	-10.4723
▁spread	-10.4723
▁Taylor	-10.4723
▁1950	-10.4723
▁Sunday	-10.4723
▁heavi	-10.4723
▁random	-10.4723
▁sentence	-10.4723
▁THIS	-10.4723
▁blame	-10.4723
▁Morris	-10.4723
▁funnier	-10.4723
▁Chaney	-10.4723
▁relief	-10.4723
▁numer	-10.4723
▁finger	-10.4723
▁ripped	-10.4724
▁narrative	-10.4724
▁House	-10.4724
▁Story	-10.4724
▁grew	-10.4724
▁appropriate	-10.4724
▁naive	-10.4725
▁handsome	-10.4725
▁everywhere	-10.4726
▁Way	-10.4726
Un	-10.4726
▁besides	-10.4726
▁Jackson	-10.4727
▁attend	-10.4728
▁assume	-10.4729
▁ALL	-10.4731
▁Dracula	-10.4732
▁split	-10.4732
▁Blood	-10.4736
written	-10.4736
▁brand	-10.4737
▁anybody	-10.4737
▁page	-10.4737
▁Alex	-10.4738
▁speaks	-10.4738
▁grim	-10.4739
▁Okay	-10.474
▁somewhere	-10.4742
▁upset	-10.4743
sky	-10.4743
▁Ka	-10.4744
▁aware	-10.4745
▁dry	-10.4747
▁sight	-10.4748
▁Jesse	-10.4749
▁South	-10.4756
▁:)	-10.4758
▁entertained	-10.476
▁artist	-10.4761
via	-10.4762
pit	-10.4769
▁remains	-10.477
▁captured	-10.4771
▁motion	-10.4771
▁bra	-10.4772
▁range	-10.4774
hidden	-10.4783
▁clichéd	-10.4784
▁surprisingly	-10.4784
▁noticed	-10.4789
▁na	-10.4796
▁makeup	-10.4799
cro	-10.4801
lie	-10.4807
▁virtual	-10.481
▁suffering	-10.4824
▁seeking	-10.4828
fore	-10.4832
▁watchable	-10.4834
▁Ber	-10.4844
▁Com	-10.4847
▁discovered	-10.4854
zen	-10.4862
going	-10.4865
▁inept	-10.487
▁shak	-10.4876
▁Ja	-10.4888
▁comical	-10.4888
ould	-10.4896
▁saved	-10.4917
▁Min	-10.4923
▁fights	-10.4923
apped	-10.4926
yes	-10.4929
▁myth	-10.4929
▁Hills	-10.4931
hard	-10.494
▁renting	-10.4947
▁shines	-10.4949
▁ahead	-10.495
lon	-10.495
rey	-10.4973
▁conversations	-10.4986
ino	-10.5003
▁faces	-10.5004
▁locations	-10.5005
▁bill	-10.5015
▁spite	-10.5025
▁location	-10.5055
▁expression	-10.5056
que	-10.5067
▁types	-10.5076
fic	-10.5077
iff	-10.508
▁Ga	-10.5092
▁pieces	-10.5094
▁spoiler	-10.5105
").	-10.511
▁heads	-10.5117
▁Gre	-10.5121
aking	-10.5136
▁fo	-10.5143
▁crash	-10.5143
▁passion	-10.515
▁gut	-10.5164
hoo	-10.517
▁1.	-10.5181
Re	-10.5187
tz	-10.5202
look	-10.5222
▁paint	-10.5225
▁Movies	-10.5247
▁IN	-10.5249
▁doll	-10.525
losing	-10.5253
efore	-10.5263
▁flicks	-10.5279
▁drink	-10.5284
watch	-10.5285
With	-10.5285
▁Cha	-10.5286
▁Are	-10.5292
▁hook	-10.5293
▁flesh	-10.5299
▁breaks	-10.5301
ude	-10.5306
▁Gor	-10.5308
▁IT	-10.5312
onkey	-10.5314
▁Mer	-10.5328
Here	-10.5328
▁thank	-10.5336
▁multi	-10.5343
ified	-10.5346
▁lover	-10.5346
▁expos	-10.5347
▁response	-10.5347
▁Charley	-10.5347
▁DEAD	-10.5347
▁MOVIE	-10.5347
▁asleep	-10.5347
▁associate	-10.5347
▁benefit	-10.5347
▁cheese	-10.5347
▁cliche	-10.5347
▁concert	-10.5347
▁conservative	-10.5347
▁context	-10.5347
▁degree	-10.5347
▁disbelief	-10.5347
▁exchange	-10.5347
▁experiment	-10.5347
▁intriguing	-10.5347
▁irritating	-10.5347
▁military	-10.5347
▁radio	-10.5347
▁reflect	-10.5347
▁routine	-10.5347
▁service	-10.5347
▁Cooper	-10.5347
▁Fonda	-10.5347
▁Powell	-10.5347
▁WWII	-10.5347
▁sensitive	-10.5347
▁unpleasant	-10.5347
▁Pryor	-10.5347
▁earn	-10.5347
▁Troy	-10.5347
▁Eliza	-10.5347
▁magnificent	-10.5347
▁cook	-10.5347
▁Franco	-10.5347
▁Kirk	-10.5347
▁excited	-10.5348
▁flash	-10.5348
▁facial	-10.5348
▁Space	-10.5348
▁pacing	-10.5348
▁lazy	-10.5348
▁racist	-10.5348
historic	-10.5348
▁crush	-10.5348
▁kidding	-10.5348
▁freak	-10.5348
▁unfunny	-10.5349
▁committed	-10.5349
▁hint	-10.5349
▁vein	-10.5349
▁Death	-10.535
▁exploitation	-10.535
▁soap	-10.535
▁achievement	-10.5351
▁dangerous	-10.5351
▁eight	-10.5351
▁extraordinary	-10.5351
▁interaction	-10.5351
▁string	-10.5352
▁Dante	-10.5352
▁rebel	-10.5353
▁THAT	-10.5353
▁pretentious	-10.5353
▁Joseph	-10.5354
▁Angeles	-10.5354
▁gold	-10.5355
▁idiotic	-10.5356
▁presentation	-10.5356
▁gimmick	-10.5358
▁print	-10.5358
▁goofy	-10.5359
▁wealthy	-10.5359
▁Jenni	-10.5362
▁USA	-10.5364
▁yeah	-10.5366
▁demon	-10.5368
▁cave	-10.5369
▁realism	-10.537
▁Tony	-10.5371
▁heroic	-10.5372
▁gain	-10.5374
▁lucky	-10.5377
▁park	-10.5379
▁limited	-10.5381
wan	-10.5383
▁lock	-10.5383
▁Bette	-10.539
▁larger	-10.539
▁justice	-10.5391
▁Sun	-10.5397
▁doco	-10.5399
▁rain	-10.5408
▁report	-10.5416
▁portraying	-10.5434
▁caused	-10.5449
▁honestly	-10.5451
▁topic	-10.5452
ez	-10.5454
too	-10.5466
▁cinematic	-10.5474
▁succeeds	-10.5493
▁dig	-10.5502
▁Wal	-10.5505
▁beach	-10.5514
ouch	-10.5521
▁delivered	-10.5532
rain	-10.5538
▁document	-10.554
▁ham	-10.5543
▁arms	-10.5551
▁Bas	-10.5561
▁dai	-10.5565
there	-10.5587
▁names	-10.5588
▁king	-10.5599
pper	-10.5603
fo	-10.5603
▁stereotypes	-10.5604
▁Bar	-10.5606
BO	-10.561
▁sucks	-10.5611
putting	-10.5626
▁forth	-10.5643
▁believed	-10.568
▁Hav	-10.5685
▁results	-10.569
Lisa	-10.5705
▁tricks	-10.5708
19	-10.5709
RA	-10.5713
▁drug	-10.5715
▁weapon	-10.5716
▁angle	-10.572
▁reaction	-10.5721
▁conversation	-10.5722
par	-10.574
▁obscure	-10.5742
Finally	-10.576
▁overly	-10.5766
▁Du	-10.578
▁Ku	-10.579
▁players	-10.5821
▁Sta	-10.5832
▁seconds	-10.5835
▁Lu	-10.5837
ough	-10.5841
▁awards	-10.5849
ji	-10.5856
▁millions	-10.5868
▁Fe	-10.5869
▁Ran	-10.5878
▁killings	-10.5889
▁efforts	-10.5909
▁cla	-10.5922
iest	-10.5928
ace	-10.5929
X	-10.5943
place	-10.5947
Anyway	-10.595
bel	-10.5952
However	-10.5952
American	-10.5953
fight	-10.5957
▁travell	-10.5964
ttle	-10.5977
▁easi	-10.598
urn	-10.5981
▁extreme	-10.5985
▁teens	-10.599
▁India	-10.5993
▁Australia	-10.5998
▁ages	-10.6005
▁hype	-10.6005
gotten	-10.6006
▁threat	-10.6009
hand	-10.6009
▁distinct	-10.6011
▁revolution	-10.6013
▁wolf	-10.6013
aptain	-10.6013
▁August	-10.6014
▁Keaton	-10.6014
▁Meanwhile	-10.6014
▁Nelson	-10.6014
▁Stewart	-10.6014
▁corpse	-10.6014
▁engaging	-10.6014
▁excitement	-10.6014
▁ordinary	-10.6014
▁prince	-10.6014
▁quote	-10.6014
▁reputation	-10.6014
▁striking	-10.6014
▁substance	-10.6014
▁supernatural	-10.6014
▁thorough	-10.6014
▁triumph	-10.6014
▁uncomfortable	-10.6014
▁essence	-10.6014
▁transition	-10.6014
Brien	-10.6014
▁Smith	-10.6014
▁colour	-10.6014
▁enemy	-10.6014
▁nominate	-10.6014
▁tedious	-10.6014
▁Dream	-10.6014
▁Remember	-10.6014
▁sharp	-10.6014
▁Three	-10.6014
▁Anderson	-10.6014
▁forgettable	-10.6014
▁gratuitous	-10.6014
▁multiple	-10.6014
▁contact	-10.6014
▁speed	-10.6014
▁Esther	-10.6014
▁football	-10.6014
▁Marple	-10.6014
▁internet	-10.6014
▁Harold	-10.6014
▁Music	-10.6014
▁bald	-10.6014
▁risk	-10.6014
▁River	-10.6015
▁Wilder	-10.6015
▁Panther	-10.6015
▁fix	-10.6015
▁harsh	-10.6015
▁Damme	-10.6015
▁Hector	-10.6015
▁window	-10.6015
▁underrated	-10.6016
▁China	-10.6016
▁neat	-10.6016
▁Unlike	-10.6016
▁stress	-10.6017
▁hack	-10.6017
▁indie	-10.6018
▁nomination	-10.6018
▁16	-10.6018
looking	-10.6019
▁energy	-10.602
▁sport	-10.6021
▁drunken	-10.6021
▁snow	-10.6021
▁Ruth	-10.6021
▁pair	-10.6021
▁spiritual	-10.6021
▁Such	-10.6022
▁dirty	-10.6023
▁Helen	-10.6023
▁East	-10.6024
retty	-10.6024
▁cure	-10.6025
▁Stephen	-10.6025
▁dozen	-10.6027
▁extended	-10.6028
▁connection	-10.6029
▁Friday	-10.6029
▁winning	-10.603
▁Later	-10.603
▁laughter	-10.6033
▁Lucy	-10.6034
▁skin	-10.6035
▁Batman	-10.6036
▁Leslie	-10.6038
▁loving	-10.6038
▁vision	-10.6039
▁touches	-10.6039
▁occasionally	-10.6039
▁Lord	-10.6042
▁pity	-10.6042
▁Chi	-10.6043
▁fade	-10.6045
▁cable	-10.6045
hood	-10.6047
▁Kate	-10.6047
▁bitter	-10.605
▁Up	-10.6051
▁Andy	-10.6053
▁Brad	-10.6055
▁boat	-10.6056
▁trashy	-10.6056
▁struggl	-10.6057
▁endure	-10.6058
▁screaming	-10.606
▁haunting	-10.6064
actor	-10.6065
▁heroes	-10.6065
▁below	-10.6067
▁Sex	-10.6073
▁Germany	-10.6078
▁insulting	-10.6086
▁Dark	-10.6088
▁searching	-10.6095
▁performed	-10.6106
love	-10.6115
EN	-10.6115
stru	-10.6118
erling	-10.6119
▁Ward	-10.6123
▁touched	-10.6128
▁wind	-10.6136
▁Take	-10.6139
▁deaths	-10.6146
▁remark	-10.6162
................	-10.6164
▁Kar	-10.6169
1)	-10.6183
oz	-10.6183
▁ST	-10.6185
▁equal	-10.6195
▁pan	-10.6199
ink	-10.6213
▁Edd	-10.6218
▁strongly	-10.6222
aw	-10.6227
▁opens	-10.6229
▁Dor	-10.6235
▁buying	-10.6252
ita	-10.6258
any	-10.6271
▁tears	-10.6274
ual	-10.628
▁hearing	-10.6291
rk	-10.6292
rrol	-10.6296
▁wo	-10.6298
ative	-10.6309
▁develop	-10.6315
▁drugs	-10.6316
▁Being	-10.6325
▁fail	-10.6333
▁Sch	-10.6339
bie	-10.6343
▁spoilers	-10.6343
lib	-10.6346
▁ghosts	-10.6358
uh	-10.6371
▁leg	-10.6371
▁suck	-10.6372
▁tie	-10.6373
▁threaten	-10.6378
▁skills	-10.6382
utter	-10.6386
▁rat	-10.642
▁CR	-10.6423
▁intention	-10.6426
▁soldier	-10.6437
▁stereotype	-10.6441
▁plant	-10.6441
key	-10.645
▁Thank	-10.6474
▁rais	-10.6489
▁introduc	-10.649
▁disc	-10.6493
net	-10.65
▁Through	-10.6501
▁Die	-10.6504
nude	-10.6505
▁Candy	-10.6525
boy	-10.6529
hero	-10.6539
▁Ge	-10.6541
▁ne	-10.6551
▁forces	-10.6556
VERY	-10.6569
▁levels	-10.6575
▁attempting	-10.6576
▁200	-10.6612
▁examples	-10.6614
▁entertain	-10.6618
▁disappoint	-10.6619
▁sides	-10.6622
▁j	-10.6624
▁focuse	-10.663
jo	-10.6633
▁Lin	-10.6637
▁path	-10.664
▁faith	-10.6661
John	-10.6665
Star	-10.6666
board	-10.6668
Whi	-10.6671
hop	-10.6682
▁fi	-10.6689
▁initial	-10.6691
Donald	-10.6692
▁ultimate	-10.6692
▁unfortunate	-10.6693
arian	-10.6694
▁junk	-10.6695
▁guarantee	-10.6696
cur	-10.6697
▁require	-10.6699
▁creep	-10.6705
valent	-10.6707
▁base	-10.6709
▁dread	-10.671
▁Africa	-10.6712
▁Rock	-10.6714
▁cab	-10.6717
chin	-10.6718
▁environment	-10.672
style	-10.6721
▁amateur	-10.6726
▁improve	-10.6726
▁kidnap	-10.6727
▁relation	-10.6727
▁alcohol	-10.6728
▁assistant	-10.6728
▁execution	-10.6728
▁grandmother	-10.6728
▁guitar	-10.6728
▁parallel	-10.6728
▁pilot	-10.6728
▁primar	-10.6728
▁recognition	-10.6728
▁resolution	-10.6728
▁sleaz	-10.6728
EVIL	-10.6728
▁Obviously	-10.6728
▁President	-10.6728
▁School	-10.6728
▁Seymour	-10.6728
▁Thompson	-10.6728
▁adequate	-10.6728
▁celebrit	-10.6728
▁climb	-10.6728
▁enormous	-10.6728
▁illegal	-10.6728
▁industry	-10.6728
▁liberal	-10.6728
▁ninja	-10.6728
▁nonetheless	-10.6728
▁superficial	-10.6728
▁theatrical	-10.6728
▁unexpected	-10.6728
▁veteran	-10.6728
▁virus	-10.6728
Spoiler	-10.6728
▁Philip	-10.6728
▁blatant	-10.6728
▁courage	-10.6728
▁creating	-10.6728
▁dinner	-10.6728
▁false	-10.6728
▁homage	-10.6728
▁variety	-10.6728
▁Spain	-10.6728
▁steam	-10.6728
▁overlooked	-10.6728
▁desert	-10.6728
▁protest	-10.6728
▁Gator	-10.6728
▁Hanks	-10.6728
▁lesbian	-10.6728
▁wander	-10.6728
conventional	-10.6728
▁frequently	-10.6728
▁surface	-10.6728
▁debate	-10.6728
▁Power	-10.6728
▁financial	-10.6728
▁patient	-10.6728
▁shoes	-10.6728
▁shape	-10.6728
▁wanna	-10.6728
▁Short	-10.6729
▁martia	-10.6729
▁Francisco	-10.6729
▁attach	-10.6729
▁marvelous	-10.6729
▁calm	-10.6729
ama	-10.6729
▁link	-10.6729
▁shoots	-10.673
Much	-10.673
▁Brando	-10.673
▁confrontation	-10.673
▁HBO	-10.673
▁trial	-10.673
▁Clint	-10.673
▁mask	-10.673
▁invention	-10.673
▁mainstream	-10.6731
▁professor	-10.6731
▁imagery	-10.6731
▁sitcom	-10.6731
▁tree	-10.6731
lbeit	-10.6731
▁tag	-10.6732
▁Lester	-10.6733
▁Karen	-10.6734
▁Road	-10.6734
▁Chef	-10.6734
▁=	-10.6735
▁Definitely	-10.6735
▁Carlin	-10.6735
▁McC	-10.6736
▁Harve	-10.6736
▁movement	-10.6736
▁information	-10.6737
▁Someone	-10.6737
ickey	-10.6739
▁AIDS	-10.674
▁Satan	-10.674
▁racial	-10.674
▁Avoid	-10.6741
▁hired	-10.6741
▁Kelly	-10.6741
▁chain	-10.6743
▁Dog	-10.6744
▁settle	-10.6744
hal	-10.6746
▁Brian	-10.6748
▁Actually	-10.675
▁Vincent	-10.675
gency	-10.675
▁III	-10.6752
▁wound	-10.6752
▁Wind	-10.6754
▁repeated	-10.6754
▁edited	-10.6757
▁Award	-10.6759
▁Anne	-10.6759
▁Bur	-10.676
ooney	-10.6761
▁Woody	-10.6764
▁fac	-10.6767
▁flawed	-10.6769
erra	-10.6771
▁Gary	-10.678
▁Cur	-10.6782
▁Eye	-10.6786
▁fairy	-10.6794
▁pal	-10.6794
▁tripe	-10.6794
▁board	-10.6795
▁spy	-10.6795
▁blo	-10.6795
▁Beverl	-10.6801
▁magical	-10.6803
▁painting	-10.6807
▁titles	-10.6808
▁surrounding	-10.6811
▁pose	-10.6812
▁lay	-10.6813
▁driven	-10.6821
ica	-10.6825
▁wise	-10.6827
▁loser	-10.683
▁starred	-10.6841
▁humans	-10.6852
▁deeply	-10.687
ries	-10.6883
▁stranger	-10.6902
rich	-10.6904
▁explains	-10.6906
lash	-10.6908
LA	-10.6911
than	-10.6919
▁Stu	-10.6927
done	-10.6936
▁revolv	-10.6948
▁strangely	-10.6955
▁card	-10.6973
omb	-10.6973
▁raise	-10.6976
▁Ste	-10.6978
▁En	-10.6986
▁Lon	-10.7007
▁grip	-10.7015
****	-10.7024
▁adapt	-10.7026
▁Play	-10.7045
zi	-10.7053
▁dia	-10.7058
▁exceptional	-10.7059
ole	-10.7063
bout	-10.7065
▁expressions	-10.7077
▁graphics	-10.71
▁disco	-10.7119
▁nicely	-10.7135
▁size	-10.7139
sure	-10.7142
▁Fi	-10.7154
live	-10.7166
!!!!	-10.7177
▁drag	-10.718
MAN	-10.7182
▁purchase	-10.7183
PS	-10.7184
KO	-10.7198
▁clue	-10.7199
▁prostitute	-10.7199
▁Brother	-10.7201
▁tear	-10.7207
maker	-10.7212
▁Ice	-10.7237
▁decades	-10.7238
▁shine	-10.7245
tto	-10.7246
▁lesson	-10.7257
ox	-10.7285
ugh	-10.7293
prov	-10.7303
▁rely	-10.7348
▁Gro	-10.735
ility	-10.7355
▁gal	-10.7364
▁Bud	-10.7374
▁Cart	-10.7383
cap	-10.7387
▁originally	-10.7417
down	-10.7429
EVER	-10.7431
Z	-10.7432
point	-10.7434
Watch	-10.7434
After	-10.7435
world	-10.7435
great	-10.7435
▁disturb	-10.7435
▁ir	-10.7438
called	-10.7438
position	-10.7442
Co	-10.7442
How	-10.7446
▁exploit	-10.7447
▁pin	-10.7451
▁lie	-10.7455
Oh	-10.7462
truck	-10.7472
▁reli	-10.7473
▁craz	-10.7474
▁Rub	-10.7479
▁attacks	-10.7481
▁refus	-10.7488
Yes	-10.749
ability	-10.7492
▁attract	-10.7492
made	-10.7492
nti	-10.7493
ector	-10.7494
▁commun	-10.7494
▁9/10	-10.7497
▁Brooks	-10.7497
▁Campbell	-10.7497
▁Flynn	-10.7497
▁Imagine	-10.7497
▁Pacino	-10.7497
▁abandon	-10.7497
▁afraid	-10.7497
▁credibility	-10.7497
▁disjointed	-10.7497
▁ensemble	-10.7497
▁fabulous	-10.7497
▁inspiration	-10.7497
▁rival	-10.7497
▁shoddy	-10.7497
▁surpass	-10.7497
▁unwatchable	-10.7497
▁vehicle	-10.7497
▁werewolf	-10.7497
▁abilities	-10.7497
▁clothing	-10.7497
▁task	-10.7497
▁universe	-10.7497
tooges	-10.7497
▁afternoon	-10.7497
▁relax	-10.7497
▁Clark	-10.7497
▁prevent	-10.7497
▁bonus	-10.7497
▁blend	-10.7497
▁trite	-10.7497
▁estate	-10.7497
▁turkey	-10.7497
▁Old	-10.7497
▁Hawk	-10.7498
▁critical	-10.7498
▁cannibal	-10.7498
▁stylish	-10.7498
▁Dolls	-10.7498
▁Lewis	-10.7498
▁summary	-10.7498
▁miscast	-10.7498
▁Cagney	-10.7498
▁$1	-10.7498
▁sentimental	-10.7498
▁unpredictable	-10.7498
▁buddy	-10.7499
▁ladies	-10.7499
▁spider	-10.7499
▁proceedings	-10.7499
▁Albert	-10.7499
▁Pitt	-10.7499
▁Lionel	-10.7499
▁Betty	-10.7499
▁grave	-10.7499
▁underground	-10.7499
▁witty	-10.7499
▁merit	-10.7499
▁employ	-10.75
▁Christie	-10.75
▁wake	-10.75
▁tune	-10.75
▁propaganda	-10.75
▁cash	-10.7501
END	-10.7501
▁dude	-10.7502
▁address	-10.7502
▁resembles	-10.7503
▁vast	-10.7503
▁twin	-10.7503
▁Nice	-10.7504
▁Island	-10.7504
▁illness	-10.7505
▁depiction	-10.7506
▁Ricky	-10.7508
▁stellar	-10.751
▁Poor	-10.751
▁cultural	-10.7511
▁Unit	-10.7511
▁corny	-10.7512
▁Lance	-10.7512
▁Dick	-10.7513
▁seduc	-10.7513
▁everyday	-10.7514
▁Rob	-10.7515
▁Apparently	-10.7516
▁Crumb	-10.7516
▁Dennis	-10.7516
aught	-10.7517
▁protect	-10.7517
▁skip	-10.7517
▁Back	-10.7518
alo	-10.7518
▁Last	-10.7518
▁Flash	-10.7519
▁logical	-10.752
▁2/10	-10.7521
▁gift	-10.7521
▁shirt	-10.7521
▁foot	-10.7523
▁bull	-10.7524
▁satisfying	-10.7525
▁drivel	-10.7526
ulous	-10.7528
rising	-10.753
▁Lor	-10.7531
▁classics	-10.7532
gging	-10.7533
▁None	-10.7535
▁Long	-10.7536
▁insist	-10.7538
▁Jay	-10.7538
▁Satur	-10.7539
▁crafted	-10.754
▁Son	-10.754
▁qua	-10.7544
▁Kat	-10.7545
▁busy	-10.7547
▁warning	-10.7551
▁Steven	-10.7552
▁riding	-10.7553
▁raw	-10.7555
▁dust	-10.7556
▁Call	-10.7556
▁originality	-10.756
▁position	-10.7562
ology	-10.7566
sty	-10.7571
ization	-10.7572
je	-10.7578
▁Welles	-10.7583
goer	-10.7594
▁Rain	-10.76
▁States	-10.7606
▁agreed	-10.7614
▁delivery	-10.7617
name	-10.7619
▁Matt	-10.763
▁attacked	-10.7631
existent	-10.7638
▁sin	-10.7643
otic	-10.7656
▁traveling	-10.7657
▁Thing	-10.7659
▁/	-10.7661
▁opened	-10.7666
ose	-10.7689
CE	-10.7691
du	-10.7694
movies	-10.7699
▁scares	-10.7735
▁ice	-10.7753
▁Gi	-10.7755
▁Wars	-10.7758
▁paying	-10.7759
PER	-10.7769
▁nun	-10.777
ple	-10.7773
dress	-10.7776
▁button	-10.7787
▁/>*	-10.7794
▁Am	-10.78
▁Lou	-10.7809
roll	-10.7817
▁Per	-10.7825
▁Julia	-10.7826
▁wondered	-10.7826
▁intentions	-10.7826
▁legs	-10.7827
▁weapons	-10.7851
▁angles	-10.7851
▁Bell	-10.7853
▁mal	-10.7854
lies	-10.7862
▁hamm	-10.7862
She	-10.7866
▁flashbacks	-10.79
▁har	-10.7923
▁supp	-10.7941
▁ty	-10.7945
▁1984	-10.7973
vy	-10.7973
ET	-10.7987
▁flaw	-10.7992
▁Gen	-10.8008
▁presents	-10.8014
▁extras	-10.803
▁decision	-10.8032
▁fault	-10.8033
▁guest	-10.804
▁LA	-10.8041
▁explore	-10.8045
▁fare	-10.805
gue	-10.8051
▁Hill	-10.8053
▁teenager	-10.8057
▁fate	-10.8073
▁rules	-10.8076
▁swi	-10.8092
pha	-10.8102
void	-10.8115
▁produc	-10.8117
▁bears	-10.8124
▁Roberts	-10.8126
▁messages	-10.8133
za	-10.8135
▁reviewer	-10.8141
▁pulls	-10.8155
▁Brit	-10.8161
▁wrap	-10.8176
▁Ni	-10.8177
uster	-10.8179
zy	-10.8181
eek	-10.8204
heart	-10.8229
▁medic	-10.8234
writer	-10.8264
Q	-10.8266
▁haunt	-10.8267
▁possess	-10.8269
Most	-10.827
ote	-10.827
Why	-10.8272
Even	-10.8274
series	-10.828
▁limit	-10.8285
▁calls	-10.8293
▁forest	-10.8296
▁engage	-10.8299
▁Louis	-10.8305
▁centr	-10.8311
packed	-10.8313
▁equi	-10.8314
▁bore	-10.832
▁oppos	-10.8321
▁determin	-10.8328
▁terror	-10.8328
▁proceed	-10.8329
LD	-10.8329
▁charisma	-10.8329
▁neighbor	-10.833
▁Austin	-10.8331
▁Hoffman	-10.8331
▁Mexico	-10.8331
▁dynamic	-10.8331
▁explode	-10.8331
▁glimpse	-10.8331
▁synopsis	-10.8331
▁worthwhile	-10.8331
*1/2	-10.8331
▁Classic	-10.8331
▁Jekyll	-10.8331
▁Jenny	-10.8331
▁LOVE	-10.8331
▁Professor	-10.8331
▁Video	-10.8331
▁album	-10.8331
▁atrocious	-10.8331
▁bargain	-10.8331
▁choreography	-10.8331
▁colleague	-10.8331
▁crisis	-10.8331
▁embarrassed	-10.8331
▁horrific	-10.8331
▁jungle	-10.8331
▁memories	-10.8331
▁obsessed	-10.8331
▁predator	-10.8331
▁qualities	-10.8331
▁restaurant	-10.8331
▁tremendous	-10.8331
▁Grace	-10.8331
▁Jamie	-10.8331
▁MGM	-10.8331
▁Rachel	-10.8331
▁piano	-10.8331
▁wreck	-10.8331
▁Sandler	-10.8331
▁casual	-10.8331
▁clown	-10.8331
▁defeat	-10.8331
▁prior	-10.8331
▁citizens	-10.8331
▁library	-10.8331
▁spark	-10.8331
▁resort	-10.8331
▁motive	-10.8331
▁jerk	-10.8331
▁diamond	-10.8331
▁funeral	-10.8331
▁Indeed	-10.8331
▁Something	-10.8331
volut	-10.8331
▁screw	-10.8331
▁pursu	-10.8331
▁cringe	-10.8331
▁vague	-10.8331
▁bucks	-10.8331
▁Basically	-10.8331
▁Simpson	-10.8331
▁symbolism	-10.8331
▁abuse	-10.8331
▁Khan	-10.8331
▁Linda	-10.8331
▁Swed	-10.8332
▁uninspired	-10.8332
▁uninteresting	-10.8332
▁pause	-10.8332
▁obsession	-10.8332
▁employee	-10.8332
▁gritt	-10.8332
▁medium	-10.8332
▁Poe	-10.8332
▁charge	-10.8332
▁weekend	-10.8332
▁unoriginal	-10.8332
▁Burton	-10.8332
▁melodramatic	-10.8333
▁argument	-10.8333
▁Polish	-10.8333
▁closing	-10.8333
▁generous	-10.8333
▁freedom	-10.8333
▁NYC	-10.8333
▁comfortable	-10.8333
▁craft	-10.8333
▁Sadie	-10.8333
▁hardcore	-10.8334
▁hideous	-10.8334
▁crude	-10.8334
▁contemporar	-10.8334
▁polish	-10.8334
▁spare	-10.8334
▁swear	-10.8335
▁investigation	-10.8335
▁bound	-10.8335
▁advance	-10.8336
▁Art	-10.8336
THING	-10.8336
Nichol	-10.8336
▁tail	-10.8336
▁Colman	-10.8336
▁traditional	-10.8337
▁Insp	-10.8337
▁editor	-10.8338
▁Game	-10.8338
▁subplot	-10.8339
▁stolen	-10.8339
▁Indigo	-10.8339
▁Claude	-10.8339
▁buff	-10.8339
▁lifestyle	-10.8339
▁Bull	-10.8339
▁heroine	-10.834
▁amazed	-10.834
▁Mayan	-10.834
acting	-10.8341
▁Parker	-10.8343
▁Cox	-10.8344
▁mode	-10.8344
▁invent	-10.8344
▁Besides	-10.8345
ME	-10.8347
▁sexuality	-10.8348
▁fatal	-10.8348
▁recognize	-10.8349
▁Excellent	-10.8351
▁robbery	-10.8351
▁Susan	-10.8351
▁Lang	-10.8351
▁Jia	-10.8351
▁realise	-10.8351
▁chick	-10.8351
▁Yee	-10.8352
▁rob	-10.8354
▁Seven	-10.8355
▁Dance	-10.8356
▁Master	-10.8357
ular	-10.836
▁semi	-10.8361
▁arrested	-10.8361
▁letter	-10.8361
▁auto	-10.8362
motion	-10.8362
▁3/10	-10.8362
▁update	-10.8363
have	-10.8363
▁rushed	-10.8365
▁handled	-10.8367
▁comparing	-10.8367
▁laid	-10.8369
▁2000	-10.8371
▁Does	-10.8373
▁disgusting	-10.8378
ending	-10.838
▁YOU	-10.8385
▁define	-10.8388
▁Acting	-10.839
▁flying	-10.839
▁dr	-10.839
▁dear	-10.8393
▁Neil	-10.8397
luc	-10.8399
▁lying	-10.8401
▁deeper	-10.8402
▁unlikely	-10.8418
▁stone	-10.8419
ayne	-10.8421
99	-10.8423
▁code	-10.843
gged	-10.8446
▁revealing	-10.8452
▁provided	-10.8467
▁bombing	-10.8468
▁returned	-10.848
▁beast	-10.849
▁Men	-10.8492
minded	-10.8493
most	-10.8494
▁stated	-10.8497
▁lesser	-10.8497
▁hanging	-10.8502
▁Leg	-10.8504
▁typically	-10.8505
▁mob	-10.8506
rope	-10.8509
▁Cap	-10.8529
▁introduce	-10.8531
▁pat	-10.8545
▁ranks	-10.8553
▁talked	-10.8567
Sha	-10.8569
▁Friend	-10.8569
??	-10.8572
▁uncle	-10.8589
▁covered	-10.8595
▁argu	-10.8595
▁stal	-10.8599
▁Reeves	-10.8609
▁guests	-10.8636
▁Barb	-10.8637
▁Jet	-10.8643
▁subjects	-10.8648
▁clues	-10.8663
▁lessons	-10.8663
rro	-10.8669
▁harder	-10.8672
▁Pol	-10.8678
▁Top	-10.8688
▁Rei	-10.8688
ken	-10.8725
▁Arc	-10.8745
▁Carol	-10.8746
▁Karl	-10.8798
▁answers	-10.8798
▁z	-10.8798
▁joins	-10.8801
▁rid	-10.8812
▁Fredd	-10.8852
served	-10.8853
▁Nazis	-10.8853
▁invite	-10.8855
▁cameos	-10.8859
▁interviews	-10.8874
Na	-10.8876
arrow	-10.8891
▁judg	-10.8896
▁pen	-10.8914
▁Gil	-10.8939
rack	-10.8941
▁Reeve	-10.8944
▁costume	-10.895
then	-10.8958
▁Ko	-10.8963
▁cost	-10.897
other	-10.8971
▁choices	-10.8991
▁weeks	-10.8991
▁Sen	-10.9008
▁sincere	-10.9013
self	-10.9026
▁classical	-10.9039
▁steps	-10.9042
Mo	-10.9083
▁Pan	-10.9108
▁user	-10.911
ib	-10.914
4)	-10.9143
▁hid	-10.9145
unny	-10.9151
▁Mel	-10.9151
vin	-10.9161
▁pet	-10.9172
climax	-10.9176
Perhaps	-10.9176
room	-10.9177
Peter	-10.9177
James	-10.9177
perhaps	-10.9177
daughter	-10.9177
video	-10.9177
includ	-10.9178
▁scream	-10.9179
Like	-10.9179
Director	-10.9179
phone	-10.918
part	-10.9181
when	-10.9181
from	-10.9182
▁Ali	-10.9183
worthy	-10.9184
town	-10.9185
cool	-10.9185
▁Dev	-10.9186
▁accents	-10.9188
Still	-10.919
fast	-10.9193
God	-10.9201
▁command	-10.9206
tribute	-10.9209
▁logic	-10.9213
▁health	-10.9215
▁trans	-10.9221
▁Sea	-10.9222
▁Norma	-10.9225
▁narrat	-10.9228
▁bla	-10.9231
▁Angel	-10.9232
▁tradition	-10.9232
▁motivat	-10.9233
$	-10.9233
▁Harris	-10.9234
▁confront	-10.9238
▁Francis	-10.9238
▁progress	-10.9239
▁monk	-10.9239
▁Broadway	-10.924
▁dinosaur	-10.924
▁exercise	-10.924
▁implausible	-10.924
▁innocence	-10.924
▁knife	-10.924
▁ludicrous	-10.924
▁poverty	-10.924
▁prize	-10.924
▁ultra	-10.924
▁volume	-10.924
Emmanuelle	-10.924
▁Cinderella	-10.924
▁Crazy	-10.924
▁Kirby	-10.924
▁Madhuri	-10.924
▁Mitchum	-10.924
▁Muslim	-10.924
▁Pesci	-10.924
▁Reverend	-10.924
▁Reynolds	-10.924
▁Seriously	-10.924
▁Studio	-10.924
▁Sullivan	-10.924
▁absence	-10.924
▁alternative	-10.924
▁ambitious	-10.924
▁brilliance	-10.924
▁circus	-10.924
▁coffee	-10.924
▁creator	-10.924
▁cynical	-10.924
▁distinguish	-10.924
▁embarrassment	-10.924
▁habit	-10.924
▁horrendous	-10.924
▁identify	-10.924
▁incoherent	-10.924
▁mountain	-10.924
▁portrait	-10.924
▁pregnant	-10.924
▁principal	-10.924
▁riveting	-10.924
▁servant	-10.924
▁subsequent	-10.924
▁teeth	-10.924
▁terrifying	-10.924
▁website	-10.924
▁Britain	-10.924
▁Greek	-10.924
▁Spider	-10.924
▁border	-10.924
▁reunion	-10.924
▁Cabot	-10.924
▁devil	-10.924
▁ancient	-10.924
▁fortune	-10.924
▁gear	-10.924
▁official	-10.924
▁eerie	-10.924
▁Father	-10.924
▁Holmes	-10.924
▁advise	-10.924
▁gloss	-10.924
▁True	-10.924
▁Trek	-10.924
visible	-10.924
▁gross	-10.924
▁Ryan	-10.924
▁storm	-10.924
inducing	-10.924
▁Marlowe	-10.924
▁tongue	-10.924
▁baseball	-10.924
▁Turkish	-10.924
▁Talk	-10.924
dolph	-10.9241
▁basis	-10.9241
▁1930	-10.9241
▁plausible	-10.9241
▁Garland	-10.9241
▁destruction	-10.9241
▁kidnapped	-10.9241
▁Wilson	-10.9241
▁existence	-10.9241
▁curse	-10.9241
▁(198	-10.9241
▁boast	-10.9241
▁bullet	-10.9241
▁Mormon	-10.9241
▁Act	-10.9242
▁Valley	-10.9242
▁dropped	-10.9242
▁transformation	-10.9242
▁Skip	-10.9242
▁Hugh	-10.9243
▁gentle	-10.9243
▁pants	-10.9243
▁Knight	-10.9243
▁Singer	-10.9243
▁Know	-10.9243
▁screenwriter	-10.9243
▁nine	-10.9244
▁babe	-10.9244
▁Bacon	-10.9244
▁understood	-10.9244
▁CIA	-10.9244
▁commitment	-10.9244
▁proof	-10.9245
▁nail	-10.9245
▁Shir	-10.9245
▁Shot	-10.9245
▁cities	-10.9246
▁Silen	-10.9246
▁Alice	-10.9246
▁Caine	-10.9247
▁ON	-10.9248
word	-10.9248
spiring	-10.9249
▁Kairo	-10.9249
▁cabin	-10.925
▁overdone	-10.925
▁meaningless	-10.925
▁irony	-10.9251
▁reward	-10.9251
▁retarded	-10.9251
▁Rex	-10.9252
▁Conan	-10.9253
raw	-10.9253
▁torn	-10.9254
▁Johnson	-10.9254
▁Hal	-10.9254
▁mature	-10.9254
▁constructed	-10.9255
▁Lane	-10.9256
▁hotel	-10.9256
▁Hope	-10.9261
▁Third	-10.9262
▁porno	-10.9263
▁army	-10.9263
▁Side	-10.9265
▁DO	-10.9265
zzy	-10.9266
▁projects	-10.9273
▁Yeah	-10.9274
▁conscious	-10.9274
▁amateurish	-10.9275
ternal	-10.9276
▁stupidity	-10.9278
▁significant	-10.9279
▁required	-10.9279
▁sink	-10.928
▁11	-10.9281
▁understandable	-10.9283
▁Sister	-10.9283
acted	-10.9284
▁Kay	-10.9284
▁PG	-10.929
▁cock	-10.929
▁Wow	-10.929
▁thrilling	-10.9292
▁blown	-10.9293
▁useless	-10.9297
▁hide	-10.9298
▁Sadly	-10.9299
▁Christ	-10.9301
▁ep	-10.9303
▁upper	-10.9304
▁inform	-10.9307
▁Hart	-10.9308
▁SO	-10.9314
ggy	-10.9319
▁visually	-10.9322
▁failing	-10.9326
▁Crow	-10.9328
▁retr	-10.9329
▁designed	-10.9335
▁dare	-10.9343
▁warn	-10.9346
▁CH	-10.9357
▁Get	-10.9357
irport	-10.936
▁Ten	-10.9368
▁ensues	-10.9372
▁spi	-10.9379
▁Eu	-10.9386
▁appealing	-10.9388
▁bone	-10.9394
▁row	-10.9396
▁Barbar	-10.9399
deserv	-10.9407
▁Liz	-10.9409
▁wrapp	-10.9412
▁El	-10.9418
▁Gay	-10.9418
▁Ver	-10.9421
▁filmmaking	-10.9423
▁union	-10.9427
▁techniques	-10.9428
▁_	-10.9428
come	-10.9428
▁meat	-10.9447
▁lea	-10.9456
nal	-10.9457
▁terrorists	-10.9458
▁fly	-10.9462
▁Kur	-10.9478
heck	-10.949
▁handle	-10.9505
▁castle	-10.9507
▁Win	-10.9507
▁Fields	-10.9516
▁drawing	-10.9517
▁costs	-10.9543
▁heck	-10.9552
▁Rat	-10.9563
▁dam	-10.9564
▁research	-10.9564
LES	-10.9569
▁faults	-10.9576
ieve	-10.9583
▁Shar	-10.9583
awful	-10.9589
notch	-10.9608
ural	-10.9609
▁maker	-10.961
By	-10.9619
▁Sad	-10.963
▁rant	-10.9638
▁develops	-10.9639
▁friendly	-10.9655
was	-10.9657
fest	-10.9663
▁reactions	-10.9665
▁Chan	-10.9669
▁stopp	-10.9686
gno	-10.9686
wear	-10.9697
▁Dia	-10.97
TER	-10.9706
▁fest	-10.971
▁artists	-10.971
▁lit	-10.9714
▁flag	-10.9717
▁marr	-10.9732
erior	-10.9742
▁/>2	-10.9744
▁instant	-10.9744
▁squa	-10.9767
▁Kin	-10.9776
▁Tri	-10.9779
run	-10.9785
eason	-10.9799
▁Hum	-10.9801
▁wa	-10.9805
antic	-10.9806
▁Bra	-10.981
▁criminals	-10.9816
lind	-10.9818
▁arm	-10.9833
CT	-10.9837
▁Jar	-10.988
▁contribute	-10.9884
AME	-10.9885
plot	-10.9892
hearted	-10.9922
▁argue	-10.9928
range	-10.9936
▁scare	-10.9938
▁Field	-10.9943
▁unfold	-10.9948
!!!!!	-10.9966
▁gag	-10.9996
signed	-11.0015
ux	-11.0026
IA	-11.0029
specially	-11.0036
OM	-11.0041
▁Lad	-11.0063
▁Den	-11.0076
▁encourage	-11.0077
apping	-11.0077
▁evoke	-11.0084
CH	-11.0088
his	-11.0101
oid	-11.0103
izing	-11.0107
mong	-11.0138
▁exists	-11.0142
▁ski	-11.0144
scene	-11.0152
cla	-11.0161
ground	-11.0167
▁distract	-11.0172
action	-11.0175
Thank	-11.0175
▁chill	-11.0175
piece	-11.0176
famous	-11.0177
First	-11.0177
mentioned	-11.0177
Just	-11.0177
girl	-11.0177
book	-11.0177
power	-11.0179
after	-11.018
SPOILERS	-11.0181
Neil	-11.0184
water	-11.0184
▁indicat	-11.0185
▁trail	-11.0191
master	-11.0192
▁redeem	-11.0193
hart	-11.0193
stone	-11.0195
about	-11.0196
▁peace	-11.0204
udge	-11.0208
Of	-11.021
hold	-11.021
also	-11.0213
▁defi	-11.0216
cast	-11.0219
▁occasional	-11.0219
▁Woo	-11.0219
ENT	-11.0223
▁shower	-11.0225
▁bag	-11.0227
▁manipulat	-11.0228
▁definite	-11.0229
cies	-11.0233
stream	-11.0237
ification	-11.0239
▁birth	-11.0239
stitute	-11.0239
▁195	-11.0239
mpire	-11.0239
▁broad	-11.024
▁cru	-11.024
Airplane	-11.024
▁1998	-11.024
▁Amsterdam	-11.024
▁Bollywood	-11.024
▁Cecilia	-11.024
▁Mahowny	-11.024
▁Méliès	-11.024
▁Rebecca	-11.024
▁Secret	-11.024
▁Toronto	-11.024
▁Washington	-11.024
▁accompani	-11.024
▁advantage	-11.024
▁champion	-11.024
▁choreographed	-11.024
▁cigarette	-11.024
▁claustrophobic	-11.024
▁companion	-11.024
▁credible	-11.024
▁crucial	-11.024
▁curiosity	-11.024
▁custom	-11.024
▁dedicated	-11.024
▁eccentric	-11.024
▁education	-11.024
▁endearing	-11.024
▁enemies	-11.024
▁gruesome	-11.024
▁intensity	-11.024
▁kung	-11.024
▁loneliness	-11.024
▁metaphor	-11.024
▁nowadays	-11.024
▁redemption	-11.024
▁redneck	-11.024
▁relevant	-11.024
▁reminiscen	-11.024
▁silliness	-11.024
▁smoking	-11.024
▁sneak	-11.024
▁thumb	-11.024
▁twelve	-11.024
▁unforgettable	-11.024
▁uniform	-11.024
▁unravel	-11.024
▁widow	-11.024
▁Absa	-11.024
▁Duryea	-11.024
▁Horrible	-11.024
▁Iraq	-11.024
▁WAY	-11.024
▁betray	-11.024
▁dwarf	-11.024
▁flavor	-11.024
▁Evil	-11.024
▁Larry	-11.024
▁Lemmon	-11.024
▁network	-11.024
▁Slater	-11.024
▁blockbuster	-11.024
▁hippie	-11.024
▁femini	-11.024
▁measure	-11.024
▁Bridge	-11.024
▁Grand	-11.024
▁immortal	-11.024
▁circumstances	-11.024
▁sharing	-11.024
▁extent	-11.024
▁ease	-11.024
▁Vampire	-11.024
▁weather	-11.024
▁Angus	-11.024
▁entry	-11.024
▁Astro	-11.024
▁Thailand	-11.024
▁Atkins	-11.024
▁verbal	-11.024
▁heaven	-11.024
▁loyal	-11.024
▁vacation	-11.024
▁wives	-11.024
▁Ireland	-11.024
▁10/10	-11.024
▁precise	-11.024
▁Hayden	-11.024
▁Japan	-11.024
▁psychiatrist	-11.024
▁bottle	-11.024
▁landscape	-11.024
▁racism	-11.024
▁profound	-11.024
▁precious	-11.024
▁Dragon	-11.024
▁Godfather	-11.024
▁deliberate	-11.024
▁route	-11.024
dmittedly	-11.024
▁Gregory	-11.0241
▁boredom	-11.0241
▁Rouge	-11.0241
▁musicians	-11.0241
enchant	-11.0241
▁revelation	-11.0241
▁Horne	-11.0241
▁Vinny	-11.0241
▁acid	-11.0241
▁occurred	-11.0241
▁Hannah	-11.0241
Uncle	-11.0242
▁Baker	-11.0242
▁Club	-11.0242
▁fond	-11.0242
▁fifties	-11.0242
▁revive	-11.0242
▁switch	-11.0242
▁improvement	-11.0243
▁lend	-11.0243
▁Dunn	-11.0243
▁slice	-11.0243
▁monkey	-11.0243
▁trend	-11.0243
▁moron	-11.0243
▁Cassavetes	-11.0244
▁wire	-11.0244
▁block	-11.0244
isa	-11.0244
▁dump	-11.0244
▁objective	-11.0245
▁secretary	-11.0245
▁error	-11.0245
▁lake	-11.0246
▁lodge	-11.0246
▁banal	-11.0246
LL	-11.0246
▁meaningful	-11.0247
▁flowers	-11.0247
▁antics	-11.0247
▁preach	-11.0247
▁bust	-11.0248
▁storytelling	-11.0249
▁NY	-11.0249
▁robber	-11.0249
▁ego	-11.025
▁wow	-11.025
▁transform	-11.025
▁Light	-11.025
▁Arthur	-11.025
▁Keep	-11.025
▁chapter	-11.025
▁controversial	-11.025
▁morality	-11.025
▁intellectual	-11.025
▁Doctor	-11.025
▁cheated	-11.0252
▁Italy	-11.0252
▁Jimmy	-11.0252
▁pig	-11.0253
▁chosen	-11.0253
▁UK	-11.0254
▁Mouse	-11.0254
▁difficulties	-11.0254
▁urge	-11.0254
wick	-11.0255
▁coach	-11.0255
▁Add	-11.0257
▁pub	-11.0257
▁provoking	-11.0257
▁Sorry	-11.0257
▁national	-11.0257
col	-11.0257
▁Bank	-11.0257
▁childish	-11.0259
▁Superman	-11.026
▁reign	-11.026
▁uneven	-11.0261
▁annoyed	-11.0262
▁summer	-11.0262
▁bath	-11.0262
▁Killer	-11.0262
away	-11.0263
▁peak	-11.0263
▁sophisticated	-11.0264
▁Second	-11.0264
▁outcome	-11.0265
horn	-11.0266
▁crooked	-11.0267
▁bang	-11.0268
▁bold	-11.027
▁enjoyment	-11.0271
▁Personally	-11.0271
▁shift	-11.0271
▁pack	-11.0272
▁disease	-11.0275
▁Doc	-11.0276
▁quarter	-11.0277
ightmare	-11.0277
▁8/10	-11.0278
timate	-11.0279
▁wink	-11.0279
▁Wolf	-11.0282
▁Dean	-11.0283
▁Never	-11.0287
▁receiv	-11.0289
▁philosophi	-11.0291
▁panic	-11.0294
▁mistaken	-11.0295
▁helpless	-11.0297
jay	-11.0298
indulgent	-11.0299
▁Gun	-11.03
▁TO	-11.0301
▁adapted	-11.0304
▁damage	-11.0308
formed	-11.031
tube	-11.0312
ELL	-11.0315
▁successfully	-11.0322
▁Beth	-11.0323
▁wishes	-11.0325
▁legal	-11.0326
▁Inish	-11.0329
▁survived	-11.0334
▁Made	-11.0338
▁Dad	-11.0339
▁Come	-11.0341
rish	-11.0345
itting	-11.0346
ither	-11.0349
Animal	-11.0349
▁status	-11.0349
▁breasts	-11.0352
▁visiting	-11.036
▁effectively	-11.0362
met	-11.0364
▁Ren	-11.0365
OK	-11.0372
bad	-11.0376
▁persona	-11.0379
▁listening	-11.038
▁naturally	-11.0382
▁Gl	-11.0383
▁Live	-11.0385
Mr	-11.0385
▁darker	-11.0388
liners	-11.0404
El	-11.0414
▁Weller	-11.0415
▁explosions	-11.0417
▁arrives	-11.0422
▁dancers	-11.0423
▁mute	-11.0428
lves	-11.0434
▁core	-11.044
plots	-11.0456
▁poet	-11.0458
▁2:	-11.0473
▁returning	-11.0485
▁Par	-11.0499
▁Super	-11.05
▁shad	-11.0509
88	-11.0515
▁Swi	-11.0517
▁RE	-11.0517
▁slid	-11.0523
▁prisoners	-11.0531
Fast	-11.0536
▁Elm	-11.0544
▁Va	-11.0546
handed	-11.0556
▁Fac	-11.0577
funded	-11.0591
rated	-11.0606
▁decisions	-11.0613
▁pot	-11.0629
aver	-11.0637
▁prostitutes	-11.0647
▁Brothers	-11.0647
gory	-11.0651
▁divers	-11.0655
bble	-11.066
▁SH	-11.0664
arren	-11.0667
▁Russ	-11.0668
lick	-11.0669
xy	-11.0676
▁Thanks	-11.068
rod	-11.0687
late	-11.0705
Ho	-11.0723
aka	-11.0743
▁Wil	-11.0761
▁Final	-11.0772
▁Del	-11.0783
▁Hol	-11.0799
▁chest	-11.0807
▁doom	-11.0818
ara	-11.0834
ike	-11.0839
▁rev	-11.086
RY	-11.0862
▁slip	-11.0875
bil	-11.088
corporate	-11.0881
▁establish	-11.0898
dication	-11.09
pher	-11.0905
▁generate	-11.0959
turned	-11.0973
rest	-11.0993
rrie	-11.1014
JB	-11.1015
GE	-11.1019
uous	-11.1025
ritz	-11.1037
▁Tob	-11.1053
▁incident	-11.106
▁dollar	-11.1065
▁map	-11.1075
adi	-11.1075
gene	-11.1084
▁coast	-11.1088
erot	-11.1097
ounded	-11.1106
ppy	-11.1132
▁hole	-11.1141
▁prisoner	-11.1143
doubted	-11.1147
10	-11.115
cation	-11.1154
▁rank	-11.1177
▁thru	-11.12
▁thrill	-11.1205
▁refer	-11.1212
Iron	-11.1214
ith	-11.1216
▁cared	-11.1218
▁scar	-11.1232
AW	-11.1241
▁hip	-11.1249
▁gener	-11.1266
face	-11.127
Two	-11.1287
▁web	-11.1287
▁disgust	-11.1287
thriller	-11.1288
Although	-11.1288
white	-11.1288
weight	-11.1288
free	-11.1288
Night	-11.1288
craft	-11.129
40	-11.1291
Paul	-11.1291
scary	-11.1292
ugg	-11.13
▁rush	-11.1305
Fu	-11.1307
rine	-11.1311
▁frighten	-11.1314
▁eventual	-11.1316
Chi	-11.1319
▁ignore	-11.132
US	-11.1321
▁trap	-11.1322
fall	-11.1323
▁Ex	-11.1325
▁Liv	-11.1327
▁whil	-11.1333
▁pitch	-11.1334
▁fift	-11.1334
976	-11.1339
,000	-11.134
▁Park	-11.134
▁careful	-11.1342
▁chose	-11.1343
▁Gab	-11.1345
▁collect	-11.1347
▁comfort	-11.1347
▁electric	-11.1348
▁convict	-11.1348
clusion	-11.135
itizen	-11.1351
▁Terminator	-11.1351
▁Thurman	-11.1351
▁coincidence	-11.1351
▁composed	-11.1351
▁creativity	-11.1351
▁miracle	-11.1351
▁mirror	-11.1351
▁photo	-11.1351
▁repetitive	-11.1351
▁structure	-11.1351
Virus	-11.1351
arnival	-11.1351
futuristic	-11.1351
▁1994	-11.1351
▁9/11	-11.1351
▁Fleming	-11.1351
▁Honestly	-11.1351
▁Israeli	-11.1351
▁Keith	-11.1351
▁League	-11.1351
▁Poirot	-11.1351
▁Project	-11.1351
▁Psycho	-11.1351
▁Sheriff	-11.1351
▁Takuro	-11.1351
▁Terrible	-11.1351
▁Tierney	-11.1351
▁Vietnam	-11.1351
▁Voyage	-11.1351
▁abysmal	-11.1351
▁advertise	-11.1351
▁atmospheric	-11.1351
▁backdrop	-11.1351
▁behaviour	-11.1351
▁chuckle	-11.1351
▁conduct	-11.1351
▁definiti	-11.1351
▁digital	-11.1351
▁disguise	-11.1351
▁eliminate	-11.1351
▁evident	-11.1351
▁fluid	-11.1351
▁glorious	-11.1351
▁immature	-11.1351
▁literature	-11.1351
▁pitiful	-11.1351
▁plague	-11.1351
▁possibilities	-11.1351
▁possibility	-11.1351
▁quirky	-11.1351
▁senior	-11.1351
▁sidekick	-11.1351
▁solution	-11.1351
▁splendid	-11.1351
▁stilted	-11.1351
▁sympathy	-11.1351
▁tiresome	-11.1351
▁understated	-11.1351
▁uplifting	-11.1351
▁vocal	-11.1351
▁vulgar	-11.1351
▁Gaynor	-11.1351
▁Marc	-11.1351
▁demands	-11.1351
▁miserably	-11.1351
▁pseudo	-11.1351
▁satirical	-11.1351
▁sinister	-11.1351
▁welcome	-11.1351
▁announce	-11.1351
▁premier	-11.1351
▁suburb	-11.1351
▁vomit	-11.1351
▁Curtis	-11.1351
▁Lucas	-11.1351
▁garden	-11.1351
▁smash	-11.1351
▁trait	-11.1351
▁Count	-11.1351
▁Bush	-11.1351
▁altogether	-11.1351
▁Lightning	-11.1351
▁Islam	-11.1351
▁shelf	-11.1351
▁Valentin	-11.1351
▁bedroom	-11.1351
▁Evangeline	-11.1351
▁Enjoy	-11.1351
fetched	-11.1351
glo	-11.1351
▁Brent	-11.1351
▁cried	-11.1351
▁immigrant	-11.1351
▁Raymond	-11.1351
▁Court	-11.1351
▁Alain	-11.1351
▁neighborhood	-11.1351
▁exclusive	-11.1351
▁private	-11.1351
▁nerve	-11.1351
▁Eastwood	-11.1351
▁Compar	-11.1351
▁Kennedy	-11.1351
▁dismiss	-11.1351
▁strict	-11.1352
▁1940	-11.1352
▁Grube	-11.1352
balance	-11.1352
▁inject	-11.1352
▁Witch	-11.1352
scape	-11.1352
▁department	-11.1352
▁distribute	-11.1352
▁Mills	-11.1352
▁RUF	-11.1352
▁crawl	-11.1352
dance	-11.1352
▁keen	-11.1352
▁liking	-11.1352
▁View	-11.1352
▁Garden	-11.1352
▁cousin	-11.1352
▁Middle	-11.1353
▁package	-11.1353
▁WE	-11.1353
▁disappearance	-11.1353
▁Price	-11.1353
▁nostalgia	-11.1353
▁caper	-11.1353
▁neck	-11.1353
▁roof	-11.1353
▁ripoff	-11.1354
▁homo	-11.1354
▁tiger	-11.1354
mutant	-11.1354
▁nuance	-11.1354
▁queen	-11.1354
▁label	-11.1355
▁foul	-11.1355
▁funding	-11.1355
▁Warner	-11.1355
▁Whe	-11.1355
▁linger	-11.1355
▁Dodge	-11.1355
▁wig	-11.1355
▁rise	-11.1355
▁arc	-11.1356
▁bury	-11.1356
▁Under	-11.1356
▁gorilla	-11.1356
▁Kane	-11.1356
▁edition	-11.1356
stand	-11.1356
▁descend	-11.1356
▁personalities	-11.1356
▁tank	-11.1357
▁FX	-11.1357
▁priceless	-11.1357
▁chicken	-11.1357
▁collector	-11.1357
▁45	-11.1358
▁WOR	-11.1358
▁shootout	-11.1358
▁transport	-11.1359
▁narrator	-11.1359
▁Plot	-11.1361
▁Willis	-11.1361
▁Eve	-11.1362
▁Mother	-11.1362
▁Cameron	-11.1363
▁Mitchell	-11.1363
▁Murray	-11.1363
▁Recommended	-11.1363
▁Zombie	-11.1363
▁Consider	-11.1363
▁rubber	-11.1363
▁Down	-11.1364
▁suspenseful	-11.1364
▁passage	-11.1364
▁revolutionary	-11.1365
▁brow	-11.1367
▁authentic	-11.1367
▁wave	-11.1368
▁Robertson	-11.1368
▁UN	-11.1369
▁captivating	-11.137
▁tall	-11.1371
▁gather	-11.1371
▁Beat	-11.1371
▁Tell	-11.1372
▁Emil	-11.1374
▁happily	-11.1374
▁Hans	-11.1374
▁edit	-11.1374
▁Leon	-11.1374
▁policeman	-11.1374
▁brave	-11.1375
▁Sound	-11.1375
▁rendered	-11.1376
▁21	-11.1376
▁engrossing	-11.1378
▁fiancée	-11.1378
▁Worth	-11.1378
▁Scar	-11.1378
▁MY	-11.138
▁Gate	-11.138
▁ignored	-11.1382
▁Noir	-11.1384
▁weave	-11.1385
▁Leone	-11.1388
▁Za	-11.1388
▁Give	-11.1388
tiny	-11.1388
zard	-11.1389
▁perfection	-11.1391
AGE	-11.1391
▁sale	-11.1393
▁intentionally	-11.1393
▁shouting	-11.1393
▁snap	-11.1393
▁hopeless	-11.1394
▁Earl	-11.1398
▁Har	-11.1404
▁lust	-11.1406
gram	-11.1408
▁rage	-11.1408
▁Ross	-11.1412
▁possessed	-11.1415
▁Sant	-11.1415
acious	-11.142
dubious	-11.1422
▁chilling	-11.1424
▁distracting	-11.1424
▁reasonable	-11.1436
▁capital	-11.1436
▁skit	-11.1437
thankfully	-11.1437
▁gained	-11.1438
▁et	-11.1444
▁tortured	-11.1444
mill	-11.145
▁campy	-11.1451
BI	-11.1453
▁react	-11.1457
▁developing	-11.1458
▁faithful	-11.1459
▁Rating	-11.1459
▁burned	-11.1459
▁feed	-11.146
▁weight	-11.1465
inky	-11.1467
▁gap	-11.1469
guide	-11.1472
▁appreciated	-11.1475
▁complaining	-11.1478
▁kissing	-11.1478
▁pretending	-11.1478
▁troubled	-11.1482
▁selling	-11.1487
▁wu	-11.1494
THE	-11.1497
ntage	-11.1498
▁Pirate	-11.15
▁prec	-11.1512
▁referr	-11.1512
omi	-11.1512
▁Carl	-11.1518
▁displayed	-11.1525
▁thug	-11.1527
▁fired	-11.1534
▁strain	-11.1547
▁openly	-11.1549
Close	-11.1563
▁harm	-11.1563
▁Yo	-11.1569
▁Shaw	-11.1574
▁Stri	-11.1579
▁demonstrate	-11.158
rude	-11.1582
▁lip	-11.1583
Miche	-11.1586
▁hundreds	-11.1587
▁survivors	-11.1587
▁Broke	-11.1603
▁aired	-11.1627
▁Janet	-11.1629
▁10!	-11.1633
▁aged	-11.1638
▁Lot	-11.1647
▁suggested	-11.1649
▁offered	-11.1654
▁sla	-11.1668
Sur	-11.1673
▁Kill	-11.1674
▁believ	-11.1675
▁exhibit	-11.1676
▁unfolds	-11.1687
▁rele	-11.1696
note	-11.1702
▁Babe	-11.1705
dad	-11.1705
▁EVER	-11.1708
▁heat	-11.1721
bodi	-11.1736
Too	-11.1742
▁probab	-11.1768
headed	-11.1769
ancy	-11.1806
Go	-11.1806
▁Nor	-11.1815
idge	-11.1855
onic	-11.1906
▁bat	-11.1921
▁Ah	-11.1924
▁Hall	-11.1939
2007	-11.1952
ryl	-11.1961
rant	-11.1993
▁ju	-11.2004
Plan	-11.2021
omed	-11.2042
ctur	-11.2045
▁Roman	-11.2052
lmost	-11.2059
2)	-11.2075
hole	-11.2088
80	-11.2102
▁radiat	-11.211
pun	-11.2119
ION	-11.2119
▁appl	-11.2171
▁35	-11.2216
▁Deb	-11.2244
20	-11.2245
hot	-11.2249
▁succeed	-11.2258
eyed	-11.2271
▁sel	-11.2273
▁teache	-11.2283
▁remarkabl	-11.2296
▁summ	-11.23
▁terrorist	-11.2308
bar	-11.2317
▁reference	-11.2323
▁Greg	-11.2324
dditional	-11.2326
fair	-11.2335
Li	-11.2355
7)	-11.2367
lock	-11.2382
iro	-11.2423
uge	-11.2426
▁flo	-11.2431
psy	-11.2443
erence	-11.2448
▁Bat	-11.245
50	-11.2472
Her	-11.2474
stead	-11.2491
special	-11.2502
▁forgiven	-11.2511
ograph	-11.2523
dependent	-11.2525
SPOILER	-11.2527
?!?	-11.2532
view	-11.2536
producer	-11.2537
Satur	-11.2537
minute	-11.2538
moved	-11.2538
adventure	-11.2538
Unfortunately	-11.2538
blood	-11.2538
maybe	-11.2538
▁LI	-11.2539
wife	-11.254
▁pray	-11.254
sorry	-11.2541
why	-11.2548
based	-11.2548
feel	-11.2548
13	-11.2549
▁accomplish	-11.2551
Take	-11.2551
▁der	-11.2553
▁arrest	-11.2555
▁repeat	-11.2555
step	-11.2555
▁cent	-11.2563
▁smooth	-11.2563
EL	-11.2565
▁intrigue	-11.2569
▁inspire	-11.2571
poor	-11.2576
▁wealth	-11.2577
huck	-11.2582
big	-11.2584
▁Kell	-11.2585
▁broke	-11.2587
▁Wol	-11.2592
▁predict	-11.2597
▁corrupt	-11.2598
▁select	-11.2598
Victor	-11.2598
▁differ	-11.2599
ssential	-11.2599
▁grab	-11.26
▁ANY	-11.2601
▁1978	-11.2601
▁Cushing	-11.2601
▁Graham	-11.2601
▁Holocaust	-11.2601
▁Lanyon	-11.2601
▁Montgomery	-11.2601
▁afford	-11.2601
▁chocolate	-11.2601
▁compliment	-11.2601
▁composer	-11.2601
▁confirm	-11.2601
▁consequence	-11.2601
▁irrelevant	-11.2601
▁practice	-11.2601
▁smoke	-11.2601
▁unconvincing	-11.2601
▁unsatisfying	-11.2601
▁valuable	-11.2601
▁virgin	-11.2601
]	-11.2601
climatic	-11.2601
equila	-11.2601
expensive	-11.2601
’	-11.2601
▁1960	-11.2601
▁4/10	-11.2601
▁Bulworth	-11.2601
▁Catherine	-11.2601
▁Cowboy	-11.2601
▁Fairbanks	-11.2601
▁Griffith	-11.2601
▁JACK	-11.2601
▁Keiko	-11.2601
▁Muppet	-11.2601
▁Olivia	-11.2601
▁Pearl	-11.2601
▁Shahrukh	-11.2601
▁Sinatra	-11.2601
▁Spongebob	-11.2601
▁Streep	-11.2601
▁Temple	-11.2601
▁Virgil	-11.2601
▁anticipat	-11.2601
▁appalling	-11.2601
▁bittersweet	-11.2601
▁censorship	-11.2601
▁challenging	-11.2601
▁circle	-11.2601
▁cyborg	-11.2601
▁depressed	-11.2601
▁detract	-11.2601
▁enhance	-11.2601
▁glance	-11.2601
▁grief	-11.2601
▁imprisoned	-11.2601
▁inflict	-11.2601
▁injured	-11.2601
▁neglect	-11.2601
▁newspaper	-11.2601
▁occurrence	-11.2601
▁participa	-11.2601
▁pirate	-11.2601
▁politics	-11.2601
▁satisfaction	-11.2601
▁security	-11.2601
▁supreme	-11.2601
▁treasure	-11.2601
▁violin	-11.2601
▁Beautiful	-11.2601
▁Ernest	-11.2601
▁Freeman	-11.2601
▁Gruner	-11.2601
▁Sidney	-11.2601
▁Soviet	-11.2601
▁astonishing	-11.2601
▁delicious	-11.2601
▁devot	-11.2601
▁dreary	-11.2601
▁french	-11.2601
▁increasing	-11.2601
▁menacing	-11.2601
▁misunderstand	-11.2601
▁revisit	-11.2601
▁undercover	-11.2601
▁yawn	-11.2601
▁drown	-11.2601
▁graduate	-11.2601
▁jewel	-11.2601
▁rational	-11.2601
▁resume	-11.2601
▁troops	-11.2601
▁Landis	-11.2601
▁drove	-11.2601
▁ingenious	-11.2601
▁recover	-11.2601
▁showcase	-11.2601
▁Gwen	-11.2601
▁Jesus	-11.2601
▁Regard	-11.2601
▁Scene	-11.2601
▁Year	-11.2601
▁miserable	-11.2601
▁riot	-11.2601
▁spook	-11.2601
▁Owen	-11.2601
▁Woman	-11.2601
▁eager	-11.2601
▁distant	-11.2601
▁milk	-11.2601
▁misfit	-11.2601
▁spiral	-11.2601
▁Centr	-11.2601
▁agenda	-11.2601
▁recall	-11.2601
▁river	-11.2601
▁Vitus	-11.2601
▁nurse	-11.2601
▁Next	-11.2601
▁Fisher	-11.2601
▁spree	-11.2601
▁Kisna	-11.2601
▁clips	-11.2601
▁offended	-11.2601
▁smell	-11.2601
▁counterpart	-11.2601
▁voodoo	-11.2601
▁install	-11.2601
▁Barrymore	-11.2601
▁arrange	-11.2601
▁excel	-11.2601
▁leopard	-11.2601
▁informative	-11.2601
▁Stockwell	-11.2601
▁wicked	-11.2601
▁:-)	-11.2601
▁curly	-11.2601
▁cheer	-11.2601
▁Born	-11.2601
▁Plus	-11.2601
▁Bogart	-11.2601
▁alright	-11.2601
▁criticiz	-11.2601
▁planning	-11.2602
▁afterwards	-11.2602
▁Police	-11.2602
▁confusion	-11.2602
▁California	-11.2602
stabbing	-11.2602
▁nause	-11.2602
▁solve	-11.2602
▁Karloff	-11.2602
▁dumm	-11.2602
▁happiness	-11.2602
▁identifi	-11.2602
▁riddle	-11.2602
▁hunk	-11.2602
▁Daddy	-11.2602
occupie	-11.2602
▁lunch	-11.2602
▁2005	-11.2602
▁Beaver	-11.2602
▁Full	-11.2602
▁construction	-11.2602
▁Battle	-11.2602
▁Moreland	-11.2602
▁charismatic	-11.2602
▁countries	-11.2603
▁deny	-11.2603
arCraft	-11.2603
▁wipe	-11.2603
▁sheep	-11.2603
▁Bride	-11.2603
▁lighthearted	-11.2603
▁exposition	-11.2603
▁competent	-11.2603
▁Hugo	-11.2603
▁feast	-11.2603
▁forgot	-11.2603
Hara	-11.2603
▁romp	-11.2603
▁warrant	-11.2603
▁Carmen	-11.2603
▁Office	-11.2603
▁Baby	-11.2604
▁Korea	-11.2604
▁Irene	-11.2604
▁Victoria	-11.2604
▁safety	-11.2604
▁couch	-11.2604
▁southern	-11.2605
yet	-11.2605
▁magician	-11.2605
▁slim	-11.2606
▁attraction	-11.2606
▁exaggerated	-11.2606
▁flawless	-11.2606
▁Anarchy	-11.2606
▁hung	-11.2606
▁Opera	-11.2607
▁Would	-11.2607
▁shut	-11.2607
OWN	-11.2607
▁labor	-11.2607
venue	-11.2607
▁toilet	-11.2607
▁Own	-11.2608
▁belongs	-11.2608
▁remade	-11.2608
▁flight	-11.2608
OES	-11.2609
▁slap	-11.2609
▁chair	-11.2609
▁Rich	-11.2609
▁Beast	-11.2609
▁insert	-11.2609
▁gig	-11.261
▁Jake	-11.261
▁Mason	-11.2611
▁MTV	-11.2611
▁dragon	-11.2611
▁intent	-11.2612
▁Could	-11.2612
Open	-11.2612
▁corn	-11.2612
▁Frankie	-11.2612
▁Read	-11.2613
▁unreal	-11.2613
ATC	-11.2613
▁overwhelming	-11.2614
▁destin	-11.2614
▁Anthony	-11.2614
▁Vegas	-11.2614
▁Duvall	-11.2614
▁Major	-11.2614
▁Sellers	-11.2614
▁showdown	-11.2615
▁Hunter	-11.2615
▁Code	-11.2615
▁brainless	-11.2615
▁madness	-11.2616
▁popularity	-11.2617
▁unit	-11.2617
▁refuses	-11.2618
▁Four	-11.2618
▁fictional	-11.2619
▁tick	-11.2621
▁adore	-11.2623
▁Murder	-11.2623
▁Grade	-11.2623
▁respectively	-11.2623
▁Wait	-11.2623
▁Except	-11.2623
immer	-11.2625
▁leap	-11.2626
▁punches	-11.2626
▁Lori	-11.2628
▁combined	-11.2628
core	-11.2628
beloved	-11.2628
▁duo	-11.2628
▁Kiss	-11.2629
guy	-11.2629
▁Alien	-11.263
▁Australian	-11.263
▁affection	-11.2632
▁Charlotte	-11.2632
▁Matthew	-11.2632
▁apocalyp	-11.2632
▁WW	-11.2632
▁ban	-11.2633
▁manager	-11.2633
IRE	-11.2634
▁stake	-11.2635
▁goof	-11.2636
▁tip	-11.2638
Jackie	-11.2638
▁hitting	-11.2638
xia	-11.2639
▁Over	-11.2639
▁Maine	-11.264
▁bump	-11.264
▁Blai	-11.2641
zzie	-11.2641
▁darkness	-11.2641
▁Main	-11.2641
▁Door	-11.2644
▁Rocky	-11.2645
▁tense	-11.2647
▁accomplished	-11.2648
▁hopefully	-11.265
▁Fun	-11.2651
▁Myers	-11.2651
Fro	-11.2652
▁North	-11.2652
▁carefully	-11.2652
chess	-11.2652
▁thrilled	-11.2655
▁elegant	-11.2657
edge	-11.2659
▁bum	-11.266
▁melt	-11.2663
▁witch	-11.2667
simpl	-11.2669
▁Mind	-11.2675
Christina	-11.2678
▁exploited	-11.268
▁apt	-11.2688
▁Lion	-11.2691
▁Line	-11.2695
▁char	-11.2696
▁explored	-11.2696
▁combat	-11.2698
▁Bir	-11.27
▁farce	-11.2701
▁Cro	-11.2702
▁counter	-11.2704
▁desired	-11.2704
▁promote	-11.271
▁witnessed	-11.2712
▁hooker	-11.2714
▁designer	-11.2715
▁***	-11.2718
▁accepted	-11.2725
▁Jon	-11.2734
▁hall	-11.2736
▁discovery	-11.2736
▁billing	-11.2739
Production	-11.274
rating	-11.2751
▁catchy	-11.2759
▁joining	-11.2759
▁pic	-11.2761
▁candy	-11.2765
▁firm	-11.2766
▁Have	-11.2773
TY	-11.2774
pink	-11.2777
▁stronger	-11.2777
▁detailed	-11.2782
▁FU	-11.2791
▁Care	-11.2793
▁politically	-11.2794
▁studying	-11.28
▁Lily	-11.2815
▁Barne	-11.2821
far	-11.2821
critic	-11.2826
ousin	-11.2833
▁lab	-11.284
▁reache	-11.2843
ork	-11.285
▁anger	-11.2863
▁Eli	-11.2864
▁emotionally	-11.2869
▁Tar	-11.2876
rup	-11.2877
▁recording	-11.2878
▁landing	-11.2881
▁bin	-11.2906
ffected	-11.2908
▁Marsha	-11.2925
▁Had	-11.2926
imp	-11.2933
actic	-11.2936
▁Jan	-11.294
▁explor	-11.2955
▁talkie	-11.2961
▁stat	-11.298
ison	-11.2984
▁relie	-11.2989
mming	-11.2991
▁timeless	-11.2992
cute	-11.3003
very	-11.3024
anning	-11.3024
▁reminder	-11.3028
▁jo	-11.3032
olf	-11.3049
▁Iron	-11.3059
Native	-11.3081
▁Britt	-11.3102
Mil	-11.3115
▁preferr	-11.3166
▁Chase	-11.3172
▁Dam	-11.3191
▁invit	-11.3196
▁Stra	-11.3205
▁Romania	-11.3231
▁Sir	-11.3236
30	-11.3255
▁Tomm	-11.3257
▁tro	-11.3263
stantly	-11.3264
illion	-11.3266
human	-11.3303
12	-11.3328
mond	-11.3333
▁CA	-11.3358
%	-11.3398
lets	-11.3406
▁Wu	-11.3426
▁Rip	-11.3435
▁17	-11.3461
▁Cut	-11.3483
His	-11.3509
▁medi	-11.3522
▁SHA	-11.3551
nyhow	-11.359
▁observe	-11.3593
REE	-11.3615
rawl	-11.3657
▁fro	-11.3663
UT	-11.3668
cam	-11.368
beck	-11.3686
awa	-11.369
▁27	-11.3712
▁Ann	-11.3712
odd	-11.3728
▁technique	-11.3732
▁Bri	-11.3734
▁demonstrat	-11.3737
▁hundred	-11.3744
▁survivor	-11.375
▁decid	-11.3777
grade	-11.3782
▁folk	-11.3797
▁virtu	-11.3811
iving	-11.3827
▁rewrit	-11.3837
▁stra	-11.3845
FUL	-11.3859
drew	-11.3864
onica	-11.3867
rug	-11.3907
onym	-11.3913
▁compar	-11.3943
stage	-11.3955
ported	-11.3955
▁blond	-11.3956
▁dub	-11.3961
Sister	-11.3964
Blue	-11.3966
Good	-11.3966
Maybe	-11.3966
school	-11.3967
family	-11.3967
▁compell	-11.3967
perfect	-11.3967
particularly	-11.3968
true	-11.3968
serious	-11.3969
2000	-11.397
born	-11.397
11	-11.3974
▁emerge	-11.3975
▁Bay	-11.3975
Fred	-11.3976
music	-11.3977
think	-11.3978
Come	-11.398
▁impress	-11.398
unlike	-11.3983
▁aunt	-11.3984
▁Rand	-11.3986
Other	-11.3988
Hell	-11.3989
recogniz	-11.3996
tories	-11.3999
▁combine	-11.3999
hour	-11.4005
▁profession	-11.4005
Bad	-11.4006
▁necessar	-11.4006
▁ambi	-11.4008
▁rubb	-11.4012
Did	-11.4015
See	-11.4015
▁confess	-11.4017
▁stole	-11.4017
joy	-11.4018
▁Hunt	-11.4018
▁glass	-11.4019
▁resembl	-11.4019
▁Arm	-11.402
▁studi	-11.4021
▁origin	-11.4022
ramp	-11.4023
Virgin	-11.4026
both	-11.4026
▁avail	-11.4027
▁docu	-11.4028
opera	-11.4028
▁symbol	-11.4028
▁quest	-11.4028
ollowing	-11.4028
frequent	-11.4029
▁Toni	-11.4029
▁techno	-11.4029
imaginati	-11.4029
Cinematography	-11.4029
Fantastic	-11.4029
sufficient	-11.4029
trocities	-11.4029
▁/>4/10	-11.4029
▁1992	-11.4029
▁7/10	-11.4029
▁Adventure	-11.4029
▁Affleck	-11.4029
▁Amazon	-11.4029
▁Arnold	-11.4029
▁Blodgett	-11.4029
▁Bulgakov	-11.4029
▁Chicago	-11.4029
▁Christoffer	-11.4029
▁Church	-11.4029
▁Costner	-11.4029
▁Furthermore	-11.4029
▁Giallo	-11.4029
▁Gibson	-11.4029
▁Hedorah	-11.4029
▁Interesting	-11.4029
▁Keitel	-11.4029
▁Lewton	-11.4029
▁Lithgow	-11.4029
▁Lombard	-11.4029
▁Lugosi	-11.4029
▁MUST	-11.4029
▁Massacre	-11.4029
▁Melissa	-11.4029
▁Orleans	-11.4029
▁Penguin	-11.4029
▁Potter	-11.4029
▁Probably	-11.4029
▁Snipes	-11.4029
▁Steinbeck	-11.4029
▁ThunderCats	-11.4029
▁Wilberforce	-11.4029
▁Zealand	-11.4029
▁abduct	-11.4029
▁activities	-11.4029
▁ambiguous	-11.4029
▁artificial	-11.4029
▁bimbo	-11.4029
▁bumbling	-11.4029
▁category	-11.4029
▁celluloid	-11.4029
▁chief	-11.4029
▁clumsy	-11.4029
▁coherent	-11.4029
▁conscience	-11.4029
▁contemplat	-11.4029
▁demanding	-11.4029
▁disgrace	-11.4029
▁disregard	-11.4029
▁elaborate	-11.4029
▁empathy	-11.4029
▁enthusiasm	-11.4029
▁envelope	-11.4029
▁executive	-11.4029
▁fascinate	-11.4029
▁filthy	-11.4029
▁holiday	-11.4029
▁humble	-11.4029
▁illogical	-11.4029
▁imaginable	-11.4029
▁immense	-11.4029
▁intertwin	-11.4029
▁mundane	-11.4029
▁refuge	-11.4029
▁ritual	-11.4029
▁scantily	-11.4029
▁silence	-11.4029
▁sloppy	-11.4029
▁stomach	-11.4029
▁sustain	-11.4029
▁temple	-11.4029
▁tempt	-11.4029
▁territory	-11.4029
▁vacuum	-11.4029
▁volcano	-11.4029
▁vulnerable	-11.4029
▁worried	-11.4029
incarnation	-11.4029
▁1/2	-11.4029
▁ALERT	-11.4029
▁Matrix	-11.4029
▁Romasanta	-11.4029
▁Sinbad	-11.4029
▁Texas	-11.4029
▁collapse	-11.4029
▁explicit	-11.4029
▁exquisite	-11.4029
▁hallucinat	-11.4029
▁hypnotiz	-11.4029
▁hysterical	-11.4029
▁increase	-11.4029
▁ocean	-11.4029
▁rehears	-11.4029
▁replies	-11.4029
▁request	-11.4029
▁shatter	-11.4029
▁slaughter	-11.4029
▁suicidal	-11.4029
▁suspend	-11.4029
▁suspicious	-11.4029
▁sympathiz	-11.4029
▁Accord	-11.4029
▁Bernie	-11.4029
▁Direction	-11.4029
▁Gundam	-11.4029
▁Heflin	-11.4029
▁Hopkins	-11.4029
▁Hustle	-11.4029
▁Miami	-11.4029
▁Neeley	-11.4029
▁Planet	-11.4029
▁Shadow	-11.4029
▁appreciati	-11.4029
▁borrow	-11.4029
▁breathtaking	-11.4029
▁culminat	-11.4029
▁fierce	-11.4029
▁fodder	-11.4029
▁glory	-11.4029
▁grainy	-11.4029
▁pattern	-11.4029
▁unwitting	-11.4029
▁Glenn	-11.4029
▁conquer	-11.4029
Levitt	-11.4029
▁Brett	-11.4029
▁Keating	-11.4029
▁Kubrick	-11.4029
▁Palance	-11.4029
▁absent	-11.4029
▁bleak	-11.4029
▁downhill	-11.4029
▁edgy	-11.4029
▁gadget	-11.4029
▁sorcer	-11.4029
▁south	-11.4029
▁Leila	-11.4029
▁blank	-11.4029
▁buried	-11.4029
International	-11.4029
▁Audie	-11.4029
▁Mystery	-11.4029
▁built	-11.4029
▁viking	-11.4029
▁creation	-11.4029
▁seventies	-11.4029
▁Heaven	-11.4029
▁silver	-11.4029
▁Gramps	-11.4029
Brazil	-11.4029
▁Tiger	-11.4029
▁Vanishing	-11.4029
▁honor	-11.4029
▁nevertheless	-11.4029
▁sixties	-11.4029
▁blew	-11.4029
▁Corman	-11.4029
▁deaf	-11.4029
Tarzan	-11.4029
▁stamp	-11.4029
▁Usual	-11.4029
▁prompt	-11.4029
chewing	-11.4029
▁Fiona	-11.4029
▁Heather	-11.4029
▁confine	-11.403
▁cowboy	-11.403
▁international	-11.403
▁profit	-11.403
▁ordeal	-11.403
▁sweat	-11.403
▁victor	-11.403
▁knee	-11.403
Nonetheless	-11.403
▁Kyle	-11.403
▁foremost	-11.403
▁broadcast	-11.403
▁phrase	-11.403
▁recipe	-11.403
Bottom	-11.403
dyssey	-11.403
▁Royal	-11.403
▁verge	-11.403
▁faint	-11.403
▁convent	-11.403
▁league	-11.403
▁Children	-11.403
▁await	-11.403
▁idol	-11.403
▁Shore	-11.403
▁Liotta	-11.403
▁translate	-11.403
www	-11.403
▁popcorn	-11.403
lumber	-11.403
▁Beauty	-11.403
▁Nicol	-11.403
▁Wesley	-11.403
▁Holden	-11.403
▁jarring	-11.403
▁Spike	-11.403
▁athlet	-11.403
▁nanny	-11.403
▁1932	-11.403
▁bridge	-11.403
▁Actress	-11.403
▁golf	-11.403
▁Trav	-11.4031
▁drill	-11.4031
▁kidnapping	-11.4031
Tokyo	-11.4031
▁skeptic	-11.4031
filter	-11.4031
▁1999	-11.4031
Irving	-11.4031
▁Happy	-11.4031
▁geek	-11.4031
▁examin	-11.4031
▁Leonard	-11.4031
▁profanity	-11.4031
▁Minnie	-11.4031
▁outfit	-11.4032
▁glove	-11.4032
▁Shakespeare	-11.4032
▁2001	-11.4032
▁Addam	-11.4032
▁Sophi	-11.4032
▁planned	-11.4032
▁Barbarian	-11.4032
▁Jew	-11.4032
▁stiff	-11.4032
atitude	-11.4032
▁Ranger	-11.4032
▁poetry	-11.4032
▁punchline	-11.4032
arriage	-11.4033
▁Hitch	-11.4033
▁Wong	-11.4033
▁tax	-11.4033
▁gambl	-11.4033
▁subtlety	-11.4033
▁Gothic	-11.4033
▁Margo	-11.4033
▁batman	-11.4033
▁trio	-11.4033
▁Garson	-11.4033
▁electricity	-11.4034
▁Quick	-11.4034
odge	-11.4034
zzo	-11.4034
▁Barry	-11.4034
▁mansion	-11.4034
▁invest	-11.4034
▁menace	-11.4034
▁Action	-11.4034
▁Duke	-11.4034
▁flee	-11.4035
▁blah	-11.4035
▁Dust	-11.4035
agon	-11.4035
▁consistent	-11.4035
▁poem	-11.4035
▁mumb	-11.4035
▁hostage	-11.4035
OST	-11.4035
▁SEE	-11.4035
▁clueless	-11.4036
▁sentimentality	-11.4036
▁Rush	-11.4036
▁identi	-11.4036
▁Doris	-11.4036
pressive	-11.4036
▁193	-11.4036
▁shall	-11.4036
▁foolish	-11.4036
▁Draw	-11.4037
▁expressive	-11.4037
TIC	-11.4037
▁continuity	-11.4037
▁rapid	-11.4037
▁interpretation	-11.4038
quaint	-11.4038
▁Jill	-11.4038
▁sailor	-11.4038
Until	-11.4038
▁sketches	-11.4038
▁Lime	-11.4038
▁Davidson	-11.4038
▁rocket	-11.4038
stairs	-11.4039
▁involvement	-11.4039
adako	-11.4039
▁huh	-11.404
▁Latin	-11.404
▁inappropriate	-11.404
▁Rita	-11.4041
▁Rome	-11.4041
▁punk	-11.4041
▁daylight	-11.4041
▁Booth	-11.4042
▁cake	-11.4042
▁warmth	-11.4042
▁maid	-11.4042
▁overcome	-11.4044
▁tolerate	-11.4044
▁absurdity	-11.4044
▁1968	-11.4045
▁Catholic	-11.4045
▁Hellraiser	-11.4045
▁Lancaster	-11.4045
▁defense	-11.4045
▁Leung	-11.4045
▁fuel	-11.4046
▁wheel	-11.4046
▁Colbert	-11.4046
itude	-11.4046
Die	-11.4046
▁educated	-11.4047
▁greedy	-11.4047
▁weep	-11.4047
mpton	-11.4047
▁mock	-11.4048
▁dating	-11.4049
▁implie	-11.4049
▁wax	-11.4049
▁Sonic	-11.4049
▁standout	-11.4049
raft	-11.4049
▁disk	-11.4052
▁Newton	-11.4053
▁Lake	-11.4053
▁Gang	-11.4053
▁Helm	-11.4053
▁Army	-11.4054
▁cheating	-11.4055
▁Amityville	-11.4055
▁Ultimately	-11.4055
▁LOL	-11.4055
▁dubbed	-11.4055
▁fortunate	-11.4056
muni	-11.4056
▁chop	-11.4057
▁befriend	-11.4058
▁SU	-11.406
▁Berry	-11.406
▁HK	-11.4061
▁Jose	-11.4061
ggie	-11.4061
wal	-11.4061
▁abruptly	-11.4061
EVEN	-11.4063
▁Sara	-11.4065
▁Rings	-11.4065
▁Carey	-11.4066
▁intrigued	-11.4066
▁Lace	-11.4067
▁Colin	-11.4067
uddy	-11.4067
▁resolved	-11.4068
▁Moon	-11.4069
▁biased	-11.407
▁granted	-11.407
UCH	-11.407
production	-11.4072
▁smoothly	-11.4073
alph	-11.4074
Free	-11.4074
igger	-11.4076
another	-11.4079
▁bully	-11.4079
▁Louise	-11.408
INA	-11.4081
▁invade	-11.4081
▁downside	-11.4081
▁finishes	-11.4082
Bas	-11.4084
▁emergenc	-11.4085
▁healthy	-11.4086
▁engaged	-11.4086
▁Twin	-11.4086
▁Boon	-11.4088
▁lur	-11.4088
▁whim	-11.4089
▁arrived	-11.4092
▁centre	-11.4093
Elwood	-11.4095
ella	-11.4095
▁Mul	-11.4096
▁prayer	-11.41
▁Von	-11.4101
▁SPOILER	-11.4101
▁Force	-11.4102
▁established	-11.4102
▁astound	-11.4103
▁advanced	-11.4104
▁needless	-11.4104
▁Denis	-11.4105
▁whip	-11.4105
conceiv	-11.4107
▁Holly	-11.4107
▁initially	-11.4108
▁deni	-11.4108
▁Weir	-11.4111
▁mega	-11.4112
▁cancel	-11.4113
▁warned	-11.4115
▁lifetime	-11.4116
▁amuse	-11.4116
▁Cage	-11.4123
▁mill	-11.4127
????	-11.4127
▁fir	-11.4131
▁frag	-11.4136
Ree	-11.4138
▁pun	-11.4139
Glori	-11.414
rrival	-11.4141
▁fleshed	-11.4144
CA	-11.4149
▁photographed	-11.4152
urge	-11.4153
▁hence	-11.4165
▁Maria	-11.4166
lord	-11.4167
▁faster	-11.4168
▁Sheen	-11.4183
▁Frankly	-11.4183
▁technically	-11.4185
▁que	-11.4194
Crim	-11.4196
▁celebrat	-11.4206
63	-11.4208
eval	-11.4213
verage	-11.4213
▁gy	-11.4228
istance	-11.4228
▁lad	-11.423
Shaun	-11.4244
▁Saw	-11.4245
▁mayor	-11.4246
▁sand	-11.4246
store	-11.4249
lid	-11.4261
▁west	-11.4261
itable	-11.4262
▁organize	-11.4265
▁secretly	-11.4271
▁trop	-11.4278
found	-11.4278
▁wis	-11.4307
Malco	-11.4316
▁Mont	-11.4318
STER	-11.4323
▁(199	-11.4334
asque	-11.4341
▁CRA	-11.4348
etic	-11.4369
nier	-11.437
Gregor	-11.4371
▁Rem	-11.4391
Run	-11.4392
▁ob	-11.4396
▁attacker	-11.4424
▁representati	-11.4439
▁Fur	-11.4444
5)	-11.445
▁Trad	-11.4454
Candyman	-11.447
igan	-11.4495
▁Pri	-11.4495
?!)	-11.45
mechanic	-11.4504
popping	-11.4515
▁Maur	-11.4523
▁helpful	-11.4523
▁crashe	-11.4537
esque	-11.454
passionate	-11.4542
▁PR	-11.4556
▁RU	-11.4566
▁Rh	-11.4618
Pa	-11.4619
NES	-11.4621
▁Columb	-11.4624
▁Make	-11.4635
▁ironic	-11.4639
▁Again	-11.4646
▁Oz	-11.4655
▁interpret	-11.467
bul	-11.4677
stud	-11.4712
▁compete	-11.4733
▁sur	-11.4733
17	-11.4751
nice	-11.4772
pur	-11.4794
ilton	-11.4794
▁escap	-11.4806
ogue	-11.481
miss	-11.483
aimed	-11.4832
▁function	-11.4866
▁oil	-11.4893
▁Hop	-11.4894
hell	-11.4956
75	-11.4968
▁illustrate	-11.4972
eeze	-11.5017
faced	-11.5022
▁GO	-11.5037
Ben	-11.5039
▁Hay	-11.5045
rilla	-11.5048
▁legi	-11.5051
rbo	-11.5053
zar	-11.5068
mpy	-11.5077
▁prais	-11.5079
▁trave	-11.5109
▁Bod	-11.5124
bow	-11.5155
etta	-11.5179
▁Holl	-11.5196
ounce	-11.5218
▁passe	-11.522
uke	-11.5223
agging	-11.5229
▁missionar	-11.5232
▁gru	-11.525
▁Justin	-11.5282
IES	-11.5305
▁mach	-11.5312
Kim	-11.5313
▁journal	-11.5327
▁applie	-11.5337
rading	-11.5371
post	-11.5382
▁arrive	-11.5389
▁explosion	-11.5398
▁month	-11.5407
▁tap	-11.5422
eau	-11.5436
▁Joel	-11.5454
vision	-11.5492
▁dancer	-11.5507
▁Produc	-11.5516
him	-11.5518
▁surviv	-11.5529
▁Tea	-11.5536
▁pill	-11.5537
▁rig	-11.5553
paced	-11.5556
Nobody	-11.5556
▁Lov	-11.5561
▁Lom	-11.5562
▁caus	-11.5572
▁comb	-11.5584
clude	-11.5584
outhern	-11.559
▁indulg	-11.5594
ception	-11.5613
▁assassin	-11.5617
telling	-11.5619
▁elegan	-11.562
▁significan	-11.5621
/5	-11.5624
conscious	-11.5625
~	-11.5629
folk	-11.5629
eased	-11.563
8/10	-11.563
Yeah	-11.5631
3/10	-11.5631
foot	-11.5632
Leslie	-11.5632
keep	-11.5632
spoiler	-11.5632
loving	-11.5632
front	-11.5632
author	-11.5632
▁satisfy	-11.5632
Tony	-11.5632
Frank	-11.5632
Look	-11.5632
Kevin	-11.5633
addict	-11.5633
Please	-11.5633
script	-11.5633
High	-11.5633
Life	-11.5633
Though	-11.5633
Great	-11.5633
William	-11.5633
Where	-11.5633
Martin	-11.5633
normal	-11.5633
George	-11.5633
Black	-11.5633
character	-11.5633
woman	-11.5634
people	-11.5634
much	-11.5634
release	-11.5635
market	-11.5638
forward	-11.5639
wind	-11.5639
Long	-11.5639
ique	-11.5642
Dead	-11.5642
since	-11.5642
create	-11.5644
Lee	-11.5645
aware	-11.5646
▁shout	-11.5646
ntless	-11.5647
type	-11.5647
▁crook	-11.5649
▁robb	-11.5649
▁bias	-11.565
because	-11.5656
shine	-11.5657
▁abrupt	-11.5659
Julie	-11.566
▁grant	-11.566
▁unbelievabl	-11.5669
loud	-11.5669
▁memorabl	-11.567
▁dirt	-11.5673
1/10	-11.5674
▁fog	-11.5675
▁consume	-11.5678
count	-11.5678
▁bug	-11.5682
▁Luci	-11.5683
▁occu	-11.5684
▁Pete	-11.5685
▁sketch	-11.5686
▁sentiment	-11.5689
kill	-11.5689
▁sensual	-11.5693
▁ridicul	-11.5693
▁excess	-11.5694
ologi	-11.5694
etween	-11.5694
▁civil	-11.5694
▁scienti	-11.5694
IGHT	-11.5694
▁text	-11.5695
▁inherit	-11.5695
▁Child	-11.5696
▁Small	-11.5696
ucci	-11.5696
▁Jerem	-11.5696
á	-11.5696
▁Cleef	-11.5696
▁sociopath	-11.5696
AINS	-11.5696
Goldblum	-11.5696
HEAD	-11.5696
absorb	-11.5696
confident	-11.5696
economic	-11.5696
interrupted	-11.5696
iological	-11.5696
principle	-11.5696
wrenching	-11.5696
	-11.5696
ó	-11.5696
▁1969	-11.5696
▁1981	-11.5696
▁1986	-11.5696
▁Abbott	-11.5696
▁Astaire	-11.5696
▁Aztec	-11.5696
▁Blockbuster	-11.5696
▁Blonde	-11.5696
▁Brutus	-11.5696
▁Buscemi	-11.5696
▁Commission	-11.5696
▁Crusade	-11.5696
▁Dakota	-11.5696
▁Eleanor	-11.5696
▁Elliot	-11.5696
▁Fawcett	-11.5696
▁Garcia	-11.5696
▁Halloween	-11.5696
▁Jarmusch	-11.5696
▁Jerome	-11.5696
▁LIFE	-11.5696
▁Leatherface	-11.5696
▁Lynch	-11.5696
▁Matthau	-11.5696
▁McConaughey	-11.5696
▁Naschy	-11.5696
▁Olivier	-11.5696
▁Pacific	-11.5696
▁Pfeiffer	-11.5696
▁Phoenix	-11.5696
▁Poitier	-11.5696
▁Private	-11.5696
▁STILL	-11.5696
▁Saskia	-11.5696
▁Scarlett	-11.5696
▁Sinclair	-11.5696
▁Spielberg	-11.5696
▁Streisand	-11.5696
▁Sutherland	-11.5696
▁Swayze	-11.5696
▁Technicolo	-11.5696
▁Typical	-11.5696
▁Vargas	-11.5696
▁WRONG	-11.5696
▁Yuzna	-11.5696
▁abortion	-11.5696
▁admirabl	-11.5696
▁adolescent	-11.5696
▁airplane	-11.5696
▁alchemist	-11.5696
▁amityville	-11.5696
▁anniversary	-11.5696
▁anxiety	-11.5696
▁applaud	-11.5696
▁basketball	-11.5696
▁buddies	-11.5696
▁capsule	-11.5696
▁cinematographer	-11.5696
▁competition	-11.5696
▁corporation	-11.5696
▁crippl	-11.5696
▁deprav	-11.5696
▁depression	-11.5696
▁dominatrix	-11.5696
▁embrace	-11.5696
▁enthusiast	-11.5696
▁evolve	-11.5696
▁fascination	-11.5696
▁gradually	-11.5696
▁hilarity	-11.5696
▁holocaust	-11.5696
▁horrified	-11.5696
▁ignoring	-11.5696
▁implication	-11.5696
▁inaccurate	-11.5696
▁inexplicabl	-11.5696
▁innovative	-11.5696
▁insomnia	-11.5696
▁intricate	-11.5696
▁jealous	-11.5696
▁kitchen	-11.5696
▁kitsch	-11.5696
▁mathematic	-11.5696
▁misleading	-11.5696
▁monologue	-11.5696
▁motorcycle	-11.5696
▁nonsensical	-11.5696
▁obnoxious	-11.5696
▁occupation	-11.5696
▁ominous	-11.5696
▁perpetrator	-11.5696
▁phony	-11.5696
▁population	-11.5696
▁primitive	-11.5696
▁prosecut	-11.5696
▁puppet	-11.5696
▁quinte	-11.5696
▁rejected	-11.5696
▁relevance	-11.5696
▁responsibilit	-11.5696
▁retired	-11.5696
▁scatter	-11.5696
▁scratch	-11.5696
▁stumbling	-11.5696
▁surgeon	-11.5696
▁sweep	-11.5696
▁therapist	-11.5696
▁throat	-11.5696
▁tomorrow	-11.5696
▁triangle	-11.5696
▁turbulent	-11.5696
▁unanswered	-11.5696
▁undeniabl	-11.5696
▁universal	-11.5696
▁wisecrack	-11.5696
Fabian	-11.5696
Hannity	-11.5696
Revenge	-11.5696
▁Brazilian	-11.5696
▁Egypt	-11.5696
▁Fantasy	-11.5696
▁Gunnerson	-11.5696
▁Hudson	-11.5696
▁Joshua	-11.5696
▁Lucinda	-11.5696
▁Scorpio	-11.5696
▁Tarantino	-11.5696
▁WILL	-11.5696
▁Watson	-11.5696
▁cease	-11.5696
▁divide	-11.5696
▁existential	-11.5696
▁lovable	-11.5696
▁mafia	-11.5696
▁technologi	-11.5696
entitled	-11.5696
orizon	-11.5696
▁'60	-11.5696
▁Alexander	-11.5696
▁Craig	-11.5696
▁Falcon	-11.5696
▁Kutcher	-11.5696
▁Maiden	-11.5696
▁OVA	-11.5696
▁Return	-11.5696
▁TWO	-11.5696
▁adorable	-11.5696
▁balloon	-11.5696
▁devious	-11.5696
▁furious	-11.5696
▁pride	-11.5696
▁dreck	-11.5696
▁predecessors	-11.5696
▁unfairly	-11.5696
▁Caesar	-11.5696
▁National	-11.5696
▁TNT	-11.5696
▁distress	-11.5696
▁dubbing	-11.5696
▁lecture	-11.5696
▁limb	-11.5696
▁mysteries	-11.5696
▁ponder	-11.5696
▁cheesi	-11.5696
▁Blade	-11.5696
▁garner	-11.5696
▁kidnappers	-11.5696
▁spoon	-11.5696
▁Awful	-11.5696
▁Pusher	-11.5696
▁mimic	-11.5696
▁Trail	-11.5696
▁drift	-11.5696
▁strive	-11.5696
IVA	-11.5696
american	-11.5696
▁barrel	-11.5696
▁fumbl	-11.5696
▁inherent	-11.5696
▁wrestl	-11.5696
▁forbidd	-11.5696
▁Vlad	-11.5696
▁warrior	-11.5696
▁juxtaposition	-11.5696
▁persua	-11.5696
▁purport	-11.5696
▁Ferrara	-11.5696
▁patriot	-11.5696
▁vibe	-11.5696
DeMille	-11.5696
Jordan	-11.5696
▁Wallis	-11.5696
▁isolated	-11.5696
▁shove	-11.5696
▁tackle	-11.5696
▁Silver	-11.5696
▁BIG	-11.5696
▁bird	-11.5696
▁egg	-11.5696
▁excruciating	-11.5696
▁Naturally	-11.5696
▁Lynn	-11.5696
▁Cassi	-11.5696
▁chore	-11.5696
▁balanced	-11.5696
▁Smallville	-11.5696
▁bathroom	-11.5696
▁Command	-11.5696
▁accessible	-11.5696
▁grasp	-11.5696
▁psychology	-11.5696
▁SOME	-11.5696
▁chronicles	-11.5696
▁Violen	-11.5696
▁millionaire	-11.5696
▁misery	-11.5696
▁Countess	-11.5696
▁valid	-11.5696
▁worm	-11.5697
MORE	-11.5697
▁Walken	-11.5697
▁civilized	-11.5697
▁Moreau	-11.5697
▁compassionate	-11.5697
▁Madsen	-11.5697
▁lizard	-11.5697
▁Clancy	-11.5697
▁banned	-11.5697
▁Cook	-11.5697
▁troupe	-11.5697
Bernard	-11.5697
▁yellow	-11.5697
ehind	-11.5697
▁steer	-11.5697
Stahl	-11.5697
▁Rick	-11.5697
▁specifically	-11.5697
▁joking	-11.5697
▁labour	-11.5697
▁kiddie	-11.5697
▁nightclub	-11.5697
Oliver	-11.5697
Midnight	-11.5697
▁tendenc	-11.5697
▁vibran	-11.5697
▁1920	-11.5697
▁texture	-11.5697
▁Slim	-11.5697
▁overused	-11.5697
▁Laugh	-11.5697
▁distance	-11.5697
▁civilian	-11.5697
▁outrageous	-11.5698
▁Iceland	-11.5698
▁interior	-11.5698
▁observation	-11.5698
▁thread	-11.5698
▁Astor	-11.5698
▁Madame	-11.5698
▁resent	-11.5698
▁Jolie	-11.5698
▁Carrey	-11.5698
▁1951	-11.5698
▁knight	-11.5698
▁GOOD	-11.5698
▁Astin	-11.5698
▁Riget	-11.5698
▁Nielsen	-11.5698
▁stripper	-11.5698
▁Berlin	-11.5698
▁leather	-11.5698
▁trivial	-11.5698
▁excessive	-11.5699
▁2002	-11.5699
▁continually	-11.5699
▁Judge	-11.5699
▁hopeful	-11.5699
▁nonexistent	-11.5699
▁Garner	-11.5699
▁stutter	-11.5699
▁haircut	-11.5699
▁hatred	-11.5699
▁sensuality	-11.5699
▁resist	-11.5699
▁glow	-11.5699
▁batter	-11.5699
▁dysfunctional	-11.5699
▁pimp	-11.5699
▁fulfill	-11.57
▁3000	-11.57
▁bench	-11.57
▁Post	-11.57
▁Farley	-11.57
▁Dirt	-11.57
▁clock	-11.57
▁Hind	-11.57
▁propose	-11.57
▁manipulative	-11.57
▁crop	-11.57
▁decline	-11.57
▁Lifetime	-11.5701
▁suspens	-11.5701
▁Brody	-11.5701
▁surrealism	-11.5701
▁Rudy	-11.5701
▁Kung	-11.5701
▁bond	-11.5701
▁Diana	-11.5701
▁psychotic	-11.5701
▁mouse	-11.5701
▁immers	-11.5701
▁basement	-11.5701
▁vile	-11.5701
▁sham	-11.5702
laid	-11.5702
equel	-11.5702
▁Half	-11.5702
▁blast	-11.5702
▁sensational	-11.5702
▁Germ	-11.5702
▁Kern	-11.5702
▁insightful	-11.5703
▁aggressive	-11.5703
▁grandparents	-11.5703
▁plantation	-11.5703
warming	-11.5703
▁colon	-11.5703
▁alternate	-11.5703
▁dash	-11.5703
▁Seag	-11.5704
ember	-11.5704
▁survival	-11.5704
▁elsewhere	-11.5704
▁Kerry	-11.5704
▁scrap	-11.5704
▁Carson	-11.5704
▁layers	-11.5704
▁jaw	-11.5705
▁Verde	-11.5705
▁Stand	-11.5705
▁frustrated	-11.5705
▁dwell	-11.5705
▁hire	-11.5705
▁Camp	-11.5705
▁subway	-11.5706
BBC	-11.5706
▁Thorn	-11.5706
▁savage	-11.5706
▁tur	-11.5706
▁pound	-11.5706
▁Town	-11.5706
▁Absolutely	-11.5707
lsen	-11.5707
▁diary	-11.5707
▁Sense	-11.5707
▁inmates	-11.5707
▁McG	-11.5708
▁Ferrer	-11.5708
▁angst	-11.5708
▁slick	-11.5708
▁Simp	-11.5708
▁cgi	-11.5708
▁consol	-11.5709
▁Tonga	-11.5709
▁Anais	-11.5709
stral	-11.5709
▁homosexuality	-11.5709
▁'50	-11.5709
▁clone	-11.571
▁Lucia	-11.571
▁'80	-11.571
▁vent	-11.571
▁Train	-11.571
▁Richardson	-11.571
Steve	-11.5711
▁Union	-11.5712
▁Lauren	-11.5712
▁1000	-11.5712
▁Drew	-11.5712
▁nerd	-11.5712
43	-11.5713
▁overacting	-11.5714
▁environmental	-11.5714
▁EX	-11.5715
▁sooooo	-11.5715
EAS	-11.5715
▁heartbreaking	-11.5715
▁Raj	-11.5715
▁Baxter	-11.5715
▁Carpenter	-11.5715
▁Gerald	-11.5715
▁Magnolia	-11.5715
▁Nevertheless	-11.5715
▁Nikita	-11.5715
▁spectacle	-11.5715
▁Foyle	-11.5715
▁Ronald	-11.5715
▁Normally	-11.5716
▁Rani	-11.5716
▁Speak	-11.5716
Fight	-11.5716
▁obligat	-11.5716
▁complexity	-11.5716
▁progresses	-11.5716
▁sadistic	-11.5716
ergast	-11.5718
▁Trea	-11.5719
fusion	-11.572
▁vividly	-11.572
▁interact	-11.5721
walk	-11.5721
▁Sixt	-11.5722
▁tower	-11.5722
▁bio	-11.5722
▁Angela	-11.5722
▁Drive	-11.5722
▁downward	-11.5722
▁Perry	-11.5723
▁variation	-11.5724
▁fitting	-11.5724
▁undertak	-11.5724
▁hyper	-11.5725
▁sail	-11.5725
▁Fire	-11.5727
▁Predator	-11.5727
▁Special	-11.5727
▁satisfied	-11.5727
▁Margaret	-11.5727
▁mildly	-11.5727
▁Real	-11.5727
▁swimm	-11.5727
▁Penn	-11.5728
▁Law	-11.5728
▁tame	-11.5729
▁acceptable	-11.5729
▁Pend	-11.573
▁Wise	-11.5731
▁cage	-11.5731
▁severe	-11.5731
▁disa	-11.5732
▁Given	-11.5732
▁Tomie	-11.5733
▁cup	-11.5734
▁fifty	-11.5735
gast	-11.5736
▁coolest	-11.5737
▁Dinosaur	-11.5738
▁Sala	-11.5738
▁Vicki	-11.574
▁cheek	-11.574
▁Whatever	-11.574
inelli	-11.574
▁fable	-11.574
▁Nine	-11.5741
▁cram	-11.5742
▁closest	-11.5742
odern	-11.5743
avish	-11.5743
▁honey	-11.5743
▁Heart	-11.5743
▁Judy	-11.5744
▁jazz	-11.5745
arissa	-11.5745
Kar	-11.5747
▁Nata	-11.5747
▁celebrated	-11.5748
▁Late	-11.5748
▁attribute	-11.575
▁Asia	-11.5752
▁Ghost	-11.5752
▁DAY	-11.5752
▁cream	-11.5752
▁squad	-11.5754
▁heartless	-11.5755
▁observer	-11.5755
▁dramatiz	-11.5755
▁passable	-11.5756
▁Newman	-11.5756
corn	-11.5758
▁commander	-11.5761
▁Dave	-11.5761
▁jar	-11.5762
▁Buck	-11.5762
▁~	-11.5764
▁succeeded	-11.5764
▁hurr	-11.5767
▁linear	-11.5767
▁Pass	-11.577
▁Indiana	-11.5772
▁amid	-11.5772
▁tender	-11.5773
mobile	-11.5773
▁guaranteed	-11.5775
▁junkie	-11.5777
▁sucker	-11.5782
Must	-11.5787
▁MP	-11.5788
▁Page	-11.5793
▁Head	-11.5793
▁Boss	-11.5794
▁senseless	-11.5799
▁inevitabl	-11.5805
pawn	-11.5806
▁Mile	-11.5807
▁plotted	-11.5807
▁spine	-11.5807
▁Mass	-11.5809
blo	-11.5812
▁Gable	-11.5816
▁classes	-11.5818
▁orienta	-11.582
Jeffrey	-11.5831
quie	-11.5832
▁sober	-11.584
rigid	-11.5857
▁researcher	-11.5857
▁mole	-11.5858
easing	-11.586
▁rag	-11.5861
▁Cold	-11.5863
▁Hero	-11.5864
▁rang	-11.5864
erial	-11.5873
▁zan	-11.5878
▁Bog	-11.5882
Strange	-11.5891
Joe	-11.5897
iggs	-11.59
duced	-11.5909
Dar	-11.5914
iko	-11.5929
stical	-11.594
▁pale	-11.5956
▁Harp	-11.5956
▁flipp	-11.5966
ascal	-11.5968
▁bol	-11.5968
▁masterful	-11.5979
early	-11.5983
▁degrad	-11.5994
▁Ever	-11.6009
▁pann	-11.6048
47	-11.6056
azz	-11.6068
hai	-11.6069
ensic	-11.6077
▁Zi	-11.6078
▁reg	-11.6078
ssenger	-11.6096
▁bree	-11.6101
EST	-11.613
5+	-11.6137
▁Chap	-11.6142
cepti	-11.6144
enni	-11.6155
▁Mag	-11.6182
load	-11.622
arms	-11.6241
▁ME	-11.6262
▁Vo	-11.627
▁dim	-11.6289
Juli	-11.6308
kle	-11.6311
establishment	-11.6346
guar	-11.6361
harm	-11.6399
▁embar	-11.6415
▁stab	-11.6436
generated	-11.6461
▁incorporat	-11.6468
▁Patt	-11.6485
posse	-11.6523
▁...........	-11.6538
▁thoughtful	-11.6602
▁(197	-11.6626
▁Mario	-11.6663
OP	-11.6694
hem	-11.6763
▁Leo	-11.6763
▁Daw	-11.6774
▁Walt	-11.6799
▁figur	-11.68
▁disabl	-11.6834
▁Julian	-11.684
▁dic	-11.6875
hol	-11.6892
▁reduce	-11.6896
▁JO	-11.6899
▁Colum	-11.6905
ACT	-11.6923
oiled	-11.6926
▁Lenn	-11.6933
▁emba	-11.6962
quality	-11.6968
rob	-11.7004
mouthed	-11.7039
logy	-11.7102
echanical	-11.7104
either	-11.7135
mination	-11.7141
umming	-11.7146
iddle	-11.7167
▁Use	-11.7187
▁Def	-11.7195
▁grad	-11.7204
▁iron	-11.728
▁promo	-11.7302
▁subtitle	-11.7406
▁Sandr	-11.7409
▁ensue	-11.7415
Conta	-11.7421
▁State	-11.7425
▁Bai	-11.745
▁arriv	-11.7451
NNI	-11.7482
quire	-11.7513
Sword	-11.7526
▁Bac	-11.7538
trained	-11.7575
friend	-11.7587
▁tortur	-11.7588
▁annoy	-11.7588
takes	-11.7601
▁cow	-11.7607
▁battl	-11.7614
cream	-11.7617
retched	-11.7625
witch	-11.7627
Ghost	-11.7628
DAY	-11.7628
Personally	-11.7631
2/10	-11.7631
Actually	-11.7631
driven	-11.7632
Lucy	-11.7632
shirt	-11.7632
Batman	-11.7632
▁flip	-11.7632
discovered	-11.7632
Okay	-11.7632
yeah	-11.7632
Vincent	-11.7632
Chris	-11.7632
Bruce	-11.7632
Movie	-11.7633
Patrick	-11.7633
cliché	-11.7633
western	-11.7633
David	-11.7633
Very	-11.7633
straight	-11.7633
shift	-11.7633
together	-11.7633
culture	-11.7633
moving	-11.7633
Hollywood	-11.7634
black	-11.7634
twist	-11.7634
camera	-11.7634
version	-11.7634
again	-11.7634
nothing	-11.7636
Dark	-11.7636
high	-11.7637
comedy	-11.7638
Every	-11.7638
father	-11.7638
funny	-11.7638
must	-11.7639
please	-11.7639
dramatic	-11.7639
common	-11.764
gift	-11.7641
shock	-11.7642
▁damag	-11.7643
control	-11.7643
New	-11.7645
Will	-11.7645
▁render	-11.7649
panic	-11.7651
▁extend	-11.7652
dvertising	-11.7653
Out	-11.7657
▁engine	-11.7658
▁mild	-11.7659
throw	-11.7659
boat	-11.766
▁elder	-11.7661
lerks	-11.7661
Wow	-11.7662
▁confuse	-11.7666
▁matur	-11.7669
Never	-11.767
chick	-11.7672
▁opportunit	-11.7672
▁greed	-11.7673
▁respective	-11.768
▁intentional	-11.7683
▁Quee	-11.7684
cock	-11.7686
Delon	-11.7687
complet	-11.7688
▁sensation	-11.7689
will	-11.7689
▁Fran	-11.769
Bette	-11.769
Hello	-11.7691
▁taxi	-11.7691
▁Exc	-11.7692
▁sala	-11.7693
▁marvel	-11.7693
▁detect	-11.7694
xplain	-11.7694
▁Turn	-11.7695
▁specific	-11.7695
▁contest	-11.7695
▁access	-11.7696
▁favour	-11.7696
▁Keanu	-11.7696
▁BACK	-11.7696
▁Steiffel	-11.7696
▁compensate	-11.7696
▁epitom	-11.7696
▁incompetent	-11.7696
▁spectator	-11.7696
▁translation	-11.7696
Cinemascope	-11.7696
Donnell	-11.7696
FOUND	-11.7696
Incredibly	-11.7696
OOL	-11.7696
Rowsdower	-11.7696
Written	-11.7696
ZOMBIE	-11.7696
burgh	-11.7696
confidence	-11.7696
efficient	-11.7696
latform	-11.7696
ã	-11.7696
–	-11.7696
▁#1	-11.7696
▁$50	-11.7696
▁1985	-11.7696
▁1990	-11.7696
▁AWAY	-11.7696
▁Amicus	-11.7696
▁Amitabh	-11.7696
▁Benjamin	-11.7696
▁Birkut	-11.7696
▁Bravo	-11.7696
▁Brilliant	-11.7696
▁Brooke	-11.7696
▁Brooklyn	-11.7696
▁Century	-11.7696
▁Costello	-11.7696
▁Dafoe	-11.7696
▁Detective	-11.7696
▁Dixit	-11.7696
▁EARTH	-11.7696
▁Fitzgerald	-11.7696
▁Frieze	-11.7696
▁Fulci	-11.7696
▁GREAT	-11.7696
▁Georgia	-11.7696
▁Harbor	-11.7696
▁Hathaway	-11.7696
▁Hepburn	-11.7696
▁Homebodies	-11.7696
▁Internet	-11.7696
▁Kitchen	-11.7696
▁Lampoon	-11.7696
▁Luckily	-11.7696
▁Menzies	-11.7696
▁Metallica	-11.7696
▁Novello	-11.7696
▁Poelzig	-11.7696
▁Republic	-11.7696
▁Saphira	-11.7696
▁Screenplay	-11.7696
▁Sheridan	-11.7696
▁Silkwood	-11.7696
▁Simmons	-11.7696
▁Strong	-11.7696
▁Svenson	-11.7696
▁Tamblyn	-11.7696
▁Thalberg	-11.7696
▁Tintorera	-11.7696
▁Universal	-11.7696
▁Velvet	-11.7696
▁abolition	-11.7696
▁abstract	-11.7696
▁academic	-11.7696
▁aficionado	-11.7696
▁assumption	-11.7696
▁asylum	-11.7696
▁atrocity	-11.7696
▁audition	-11.7696
▁automatic	-11.7696
▁bachelor	-11.7696
▁bouncy	-11.7696
▁camcorder	-11.7696
▁captive	-11.7696
▁centuries	-11.7696
▁ceremony	-11.7696
▁chorus	-11.7696
▁climate	-11.7696
▁communicate	-11.7696
▁companies	-11.7696
▁concentrate	-11.7696
▁cycle	-11.7696
▁decapitation	-11.7696
▁deduct	-11.7696
▁defending	-11.7696
▁deputy	-11.7696
▁derivative	-11.7696
▁desperation	-11.7696
▁despise	-11.7696
▁dictator	-11.7696
▁dilemma	-11.7696
▁disastrous	-11.7696
▁distribution	-11.7696
▁elevate	-11.7696
▁eternity	-11.7696
▁exaggeration	-11.7696
▁glamor	-11.7696
▁grenade	-11.7696
▁historian	-11.7696
▁hybrid	-11.7696
▁hypnotist	-11.7696
▁hypocrisy	-11.7696
▁importance	-11.7696
▁incompetenc	-11.7696
▁instrumental	-11.7696
▁integrity	-11.7696
▁jacket	-11.7696
▁kudos	-11.7696
▁meanwhile	-11.7696
▁minutia	-11.7696
▁misanthrop	-11.7696
▁mummies	-11.7696
▁muscle	-11.7696
▁nephew	-11.7696
▁nervous	-11.7696
▁nutshell	-11.7696
▁oblivio	-11.7696
▁overblown	-11.7696
▁overshadow	-11.7696
▁paycheck	-11.7696
▁pedestrian	-11.7696
▁perplex	-11.7696
▁platoon	-11.7696
▁plethora	-11.7696
▁preposterous	-11.7696
▁president	-11.7696
▁proportions	-11.7696
▁rendition	-11.7696
▁repressed	-11.7696
▁resources	-11.7696
▁resurrect	-11.7696
▁retirement	-11.7696
▁risqué	-11.7696
▁ruthless	-11.7696
▁schedul	-11.7696
▁schmaltz	-11.7696
▁sensible	-11.7696
▁sensitivity	-11.7696
▁sleeve	-11.7696
▁species	-11.7696
▁spectrum	-11.7696
▁substanti	-11.7696
▁sumptuous	-11.7696
▁swallow	-11.7696
▁tantrum	-11.7696
▁thief	-11.7696
▁tournament	-11.7696
▁traffic	-11.7696
▁trilogy	-11.7696
▁tunnel	-11.7696
▁ugliest	-11.7696
▁unbearable	-11.7696
▁unsympathetic	-11.7696
▁utiliz	-11.7696
▁videotape	-11.7696
Asylum	-11.7696
Gremlins	-11.7696
Tuesday	-11.7696
xpedition	-11.7696
▁Album	-11.7696
▁Channel	-11.7696
▁Claire	-11.7696
▁Complete	-11.7696
▁Connery	-11.7696
▁Eviden	-11.7696
▁Lambert	-11.7696
▁Machine	-11.7696
▁Ninja	-11.7696
▁Period	-11.7696
▁Stallone	-11.7696
▁Surviv	-11.7696
▁Sweet	-11.7696
▁Teenage	-11.7696
▁antagonist	-11.7696
▁blunt	-11.7696
▁cobbled	-11.7696
▁corridors	-11.7696
▁demeano	-11.7696
▁dishonest	-11.7696
▁emphasi	-11.7696
▁feroci	-11.7696
▁frustrating	-11.7696
▁hackneyed	-11.7696
▁hockey	-11.7696
▁insipid	-11.7696
▁luxur	-11.7696
▁phenomen	-11.7696
▁reluctant	-11.7696
▁simultaneous	-11.7696
▁suave	-11.7696
▁sublime	-11.7696
▁sugar	-11.7696
▁unanimous	-11.7696
▁undead	-11.7696
▁versatil	-11.7696
▁'70	-11.7696
▁Bergman	-11.7696
▁Conehead	-11.7696
▁Creep	-11.7696
▁LOT	-11.7696
▁Veber	-11.7696
▁Zenon	-11.7696
▁karate	-11.7696
▁pipe	-11.7696
▁register	-11.7696
▁sparse	-11.7696
▁surgical	-11.7696
▁tango	-11.7696
▁torrent	-11.7696
▁Sayles	-11.7696
▁Villon	-11.7696
▁injustice	-11.7696
▁integrate	-11.7696
▁rambl	-11.7696
▁rehash	-11.7696
rocedure	-11.7696
▁Cartoon	-11.7696
▁dominate	-11.7696
▁seamless	-11.7696
▁Flower	-11.7696
▁atomic	-11.7696
▁babies	-11.7696
▁enlighten	-11.7696
▁survey	-11.7696
▁Book	-11.7696
▁entries	-11.7696
▁flood	-11.7696
▁seductive	-11.7696
▁unstable	-11.7696
▁Ashton	-11.7696
▁chimp	-11.7696
▁insanity	-11.7696
▁mockery	-11.7696
▁snail	-11.7696
▁CEO	-11.7696
▁Cannon	-11.7696
▁Fidel	-11.7696
▁Foley	-11.7696
▁Network	-11.7696
▁blur	-11.7696
▁polite	-11.7696
▁dismay	-11.7696
▁fanatic	-11.7696
▁retain	-11.7696
▁tactics	-11.7696
▁philosophy	-11.7696
▁subtleties	-11.7696
▁Parents	-11.7696
▁magn	-11.7696
▁Bosnia	-11.7696
▁Cream	-11.7696
▁Hook	-11.7696
▁Whitney	-11.7696
1945	-11.7696
▁election	-11.7696
▁Grave	-11.7696
▁audio	-11.7696
▁chunk	-11.7696
▁restrained	-11.7696
▁salesman	-11.7696
▁Krist	-11.7696
▁Shearer	-11.7696
▁Jewison	-11.7696
▁limitations	-11.7696
▁paranoi	-11.7696
▁democra	-11.7696
▁exceed	-11.7696
▁offense	-11.7696
▁Wendy	-11.7696
▁auteur	-11.7696
▁steady	-11.7696
▁darn	-11.7696
▁coincidental	-11.7696
feld	-11.7696
▁Release	-11.7696
▁Marilyn	-11.7696
▁Greggory	-11.7696
▁Basinger	-11.7696
▁Deep	-11.7696
▁Garret	-11.7696
▁interrogat	-11.7696
▁catatoni	-11.7696
tronic	-11.7696
▁agitat	-11.7696
▁believability	-11.7696
▁populate	-11.7696
▁Lynd	-11.7696
▁electronic	-11.7696
▁Ringel	-11.7697
▁tenants	-11.7697
▁Folk	-11.7697
▁financ	-11.7697
ravolta	-11.7697
▁revert	-11.7697
▁sneer	-11.7697
▁shortcomings	-11.7697
▁Smoke	-11.7697
▁choppy	-11.7697
▁tease	-11.7697
▁sarcastic	-11.7697
▁Characters	-11.7697
▁prominent	-11.7697
▁1939	-11.7697
▁Hayward	-11.7697
▁abomination	-11.7697
▁Contr	-11.7697
▁cardboard	-11.7697
▁outdated	-11.7697
▁contract	-11.7697
▁Agent	-11.7697
icardo	-11.7697
▁psychologist	-11.7697
Louisiana	-11.7697
▁Thelma	-11.7697
▁micro	-11.7697
▁poison	-11.7697
▁skinny	-11.7697
▁tomboy	-11.7697
▁softcore	-11.7697
▁replicat	-11.7697
Natural	-11.7697
▁Ellen	-11.7697
▁Mantan	-11.7697
▁ONLY	-11.7697
lving	-11.7697
▁muddled	-11.7697
▁Ground	-11.7697
▁contestant	-11.7697
▁screwball	-11.7697
▁Futurama	-11.7697
▁alarm	-11.7697
▁1936	-11.7697
▁General	-11.7697
▁hokey	-11.7697
▁Falls	-11.7698
▁noteworthy	-11.7698
▁$2	-11.7698
▁Cliff	-11.7698
▁punishment	-11.7698
▁Jonath	-11.7698
▁speculation	-11.7698
▁exposure	-11.7698
▁Hicks	-11.7698
▁Think	-11.7698
▁literar	-11.7698
Wonder	-11.7698
▁Laughton	-11.7698
▁Science	-11.7698
eagle	-11.7698
▁Bereng	-11.7698
▁goodbye	-11.7698
▁Navy	-11.7698
▁birthday	-11.7698
▁angel	-11.7698
Byrne	-11.7698
Radio	-11.7698
▁Barker	-11.7698
▁Atwill	-11.7698
▁conclude	-11.7698
imension	-11.7698
▁trading	-11.7699
▁Deadwood	-11.7699
▁Levy	-11.7699
▁collaboration	-11.7699
▁1976	-11.7699
▁Columbia	-11.7699
wacky	-11.7699
▁spew	-11.7699
▁authorities	-11.7699
▁Jewish	-11.77
▁Lanka	-11.77
▁flame	-11.77
▁region	-11.77
▁Burns	-11.77
▁Laurence	-11.77
▁instinct	-11.77
▁Allison	-11.77
▁GOD	-11.77
▁imitation	-11.77
eopard	-11.77
eanut	-11.7701
▁Khanna	-11.7701
▁torment	-11.7701
▁Dolly	-11.7701
▁mayhem	-11.7701
▁Flav	-11.7701
▁cruelty	-11.7701
▁reverse	-11.7701
▁roommate	-11.7701
▁vice	-11.7701
▁Orange	-11.7701
▁recount	-11.7701
▁(193	-11.7701
▁Winter	-11.7701
▁Rosa	-11.7702
▁Devil	-11.7702
▁impose	-11.7702
▁thick	-11.7702
Bryan	-11.7702
▁conviction	-11.7702
▁Dialog	-11.7702
▁Leigh	-11.7702
▁caricatures	-11.7702
▁selection	-11.7702
Twist	-11.7702
▁Ugh	-11.7702
▁authenticity	-11.7702
▁Diane	-11.7702
▁harmless	-11.7702
▁1954	-11.7703
▁distraction	-11.7703
▁inventive	-11.7703
▁straw	-11.7703
▁diversion	-11.7703
▁Lobo	-11.7703
▁subver	-11.7703
▁unconscious	-11.7703
▁grandson	-11.7703
▁arouse	-11.7703
▁Michel	-11.7703
▁eroticism	-11.7703
hetto	-11.7703
▁roam	-11.7704
▁institution	-11.7704
▁spring	-11.7704
▁artistry	-11.7704
▁Beau	-11.7704
▁yard	-11.7704
▁Rider	-11.7705
▁midway	-11.7705
▁click	-11.7705
▁controlled	-11.7705
▁Melies	-11.7705
▁Hansen	-11.7705
▁contradiction	-11.7706
▁archiv	-11.7706
▁payoff	-11.7706
▁BUT	-11.7706
▁mice	-11.7706
▁mannerism	-11.7707
▁acquir	-11.7707
▁rave	-11.7707
▁avid	-11.7707
▁WOW	-11.7708
▁Kenne	-11.7708
Border	-11.7708
▁unrated	-11.7708
tanley	-11.7708
▁slash	-11.7709
▁grey	-11.7709
▁Abu	-11.771
▁peril	-11.771
▁cue	-11.771
RIS	-11.771
▁realistically	-11.771
▁gent	-11.7711
▁Cross	-11.7711
▁Cleo	-11.7711
▁Dern	-11.7711
▁Chance	-11.7711
▁poker	-11.7711
▁considerably	-11.7712
▁glasses	-11.7712
pouses	-11.7712
▁Meet	-11.7713
▁scam	-11.7713
▁fend	-11.7714
▁confession	-11.7714
▁grate	-11.7714
▁Right	-11.7714
Repeat	-11.7715
▁realization	-11.7715
erite	-11.7715
▁drugg	-11.7716
▁DON	-11.7716
▁Key	-11.7716
▁patch	-11.7717
▁Muse	-11.7718
▁consumer	-11.7719
▁surf	-11.7719
INE	-11.7719
▁Kline	-11.7719
▁Corn	-11.772
▁abusi	-11.772
▁unlikeable	-11.772
Jaws	-11.7722
heim	-11.7722
▁28	-11.7722
▁mama	-11.7722
gang	-11.7723
▁corner	-11.7724
Beverl	-11.7724
▁Shop	-11.7724
▁Actor	-11.7724
▁depart	-11.7725
▁noticeable	-11.7726
▁pitcher	-11.7727
rlane	-11.7728
▁Tune	-11.7731
▁ensure	-11.7731
▁FOR	-11.7731
▁understandably	-11.7732
▁Dutt	-11.7733
▁101	-11.7733
▁sap	-11.7734
▁clerk	-11.7734
▁engineer	-11.7734
▁conspirac	-11.7735
▁pour	-11.7736
▁Ames	-11.7737
▁Tight	-11.7738
▁weakness	-11.7738
▁equip	-11.7739
▁bog	-11.7739
▁apolog	-11.7739
▁sadist	-11.774
suit	-11.774
ICA	-11.7741
▁;)	-11.7742
▁Bale	-11.7742
▁lament	-11.7742
▁items	-11.7742
▁Foo	-11.7743
owski	-11.7744
nais	-11.7745
▁discussion	-11.7745
▁manga	-11.7747
ARS	-11.7747
▁callous	-11.7748
▁partial	-11.7748
▁sold	-11.7751
▁masochis	-11.7752
▁fox	-11.7757
▁dire	-11.7762
Word	-11.7763
▁coma	-11.7764
▁peaceful	-11.7765
▁boom	-11.7772
▁decre	-11.7773
▁visitor	-11.7784
▁woke	-11.7786
▁plod	-11.7793
ssassination	-11.7793
▁Paw	-11.7797
▁conform	-11.7807
▁crav	-11.7814
blaze	-11.7815
Thunder	-11.7818
▁reliev	-11.782
▁lion	-11.7837
▁Goth	-11.7843
0,000	-11.7846
njou	-11.7876
▁Lib	-11.7883
ickening	-11.7889
Carrie	-11.7896
▁poke	-11.7905
toxic	-11.791
▁rotte	-11.7915
▁misse	-11.7938
▁competenc	-11.795
Gala	-11.7959
Everybody	-11.7975
enetic	-11.798
▁Morg	-11.7982
▁replac	-11.8005
elton	-11.8006
game	-11.8009
wkwardness	-11.8012
5%	-11.8022
82	-11.8026
▁Prim	-11.8029
▁Merc	-11.8038
▁awake	-11.8044
▁mall	-11.8045
mutate	-11.8049
▁graceful	-11.8049
untie	-11.805
HERE	-11.8071
▁skillful	-11.8077
▁preserv	-11.8082
110	-11.8126
loos	-11.8142
▁journalist	-11.8165
semi	-11.8186
oche	-11.8208
xploitation	-11.8219
coaster	-11.8235
▁mudd	-11.8258
▁rac	-11.8268
applied	-11.8272
Neal	-11.8303
AVE	-11.8338
▁escapis	-11.8339
OOD	-11.8348
Lewi	-11.8357
▁Serg	-11.8399
olland	-11.8406
▁HU	-11.8547
Drag	-11.8549
▁Meg	-11.8606
▁obscur	-11.8621
***********	-11.8632
Hav	-11.8648
▁illustrat	-11.8657
Ren	-11.8679
▁depend	-11.8725
▁compet	-11.8727
Clock	-11.873
▁squ	-11.8741
OND	-11.8771
▁convenien	-11.8794
▁LIV	-11.8811
otta	-11.8839
▁Ferr	-11.8849
rose	-11.8863
ALLY	-11.8889
1971	-11.8915
IVE	-11.8928
▁ev	-11.894
sync	-11.897
hair	-11.8992
▁Randal	-11.9012
▁Carolin	-11.9107
iversity	-11.9148
operate	-11.9148
Stir	-11.9191
▁divorc	-11.9329
ltz	-11.9404
Emma	-11.9414
25	-11.9491
UL	-11.9499
evel	-11.9501
▁improbabl	-11.9512
talking	-11.9514
ploitation	-11.956
Kama	-11.9652
▁chu	-11.9679
CON	-11.9715
abby	-11.9747
▁Carrol	-11.9759
▁breast	-11.9898
▁Anima	-11.9924
▁trac	-11.9957
▁Tele	-11.9962
▁realiz	-11.9965
Gues	-11.9981
escent	-12.0003
wink	-12.0019
▁Rubb	-12.0041
▁Cinema	-12.0059
▁tabl	-12.008
▁experienc	-12.0081
ieving	-12.009
oriented	-12.009
Final	-12.0107
worth	-12.011
awaken	-12.012
▁sigh	-12.0122
drama	-12.0126
▁dung	-12.0128
Vicki	-12.0128
Judy	-12.0128
original	-12.0128
▁Slic	-12.0129
Charlotte	-12.013
Matthew	-12.013
apocalyp	-12.013
Worth	-12.013
Second	-12.0131
sophisticated	-12.0131
definite	-12.0131
Third	-12.0131
▁fiancé	-12.0131
Excellent	-12.0131
▁engross	-12.0131
Susan	-12.0131
Apparently	-12.0131
Crumb	-12.0131
Sadly	-12.0131
Dennis	-12.0131
Friday	-12.0132
winning	-12.0132
Brian	-12.0132
Blood	-12.0132
promising	-12.0132
Alex	-12.0132
physical	-12.0132
People	-12.0132
Russell	-12.0132
teenagers	-12.0132
anime	-12.0133
literally	-12.0133
street	-12.0133
animated	-12.0133
building	-12.0133
developed	-12.0133
century	-12.0133
Thing	-12.0133
Christian	-12.0133
focus	-12.0133
Henry	-12.0133
respect	-12.0133
Jane	-12.0133
Nothing	-12.0133
knowing	-12.0133
Jenni	-12.0133
sexual	-12.0133
documentary	-12.0133
Richard	-12.0133
Michael	-12.0133
surprise	-12.0133
	-12.0133
obvious	-12.0133
figure	-12.0133
children	-12.0134
held	-12.0134
grim	-12.0134
second	-12.0134
DVD	-12.0134
Oscar	-12.0134
actually	-12.0134
worst	-12.0134
romantic	-12.0134
Eye	-12.0135
happy	-12.0136
push	-12.0136
magic	-12.0136
Qui	-12.0137
Grant	-12.0137
dark	-12.0137
cheek	-12.0138
felt	-12.0138
Flash	-12.0139
honey	-12.0139
speak	-12.014
Master	-12.014
Jack	-12.0141
flick	-12.0141
Over	-12.0145
monster	-12.0146
▁construct	-12.0147
Yee	-12.0148
Walt	-12.0153
rtunately	-12.0157
▁vivid	-12.0158
▁educate	-12.0164
▁amaze	-12.0166
▁impossibl	-12.0169
▁unnecessar	-12.0172
▁energ	-12.0173
q	-12.0173
tacked	-12.0183
spoke	-12.0183
▁contradict	-12.0184
500	-12.0185
Direct	-12.0188
atti	-12.0191
entimental	-12.0191
upporting	-12.0192
fected	-12.0192
▁Brand	-12.0193
▁contra	-12.0193
▁profan	-12.0193
echnically	-12.0194
hustler	-12.0194
annibal	-12.0194
loomy	-12.0195
overnment	-12.0195
▁smug	-12.0196
minent	-12.0196
omania	-12.0196
▁inhabit	-12.0196
oliticians	-12.0196
▁paradox	-12.0196
▁Magazine	-12.0196
▁Morricone	-12.0196
▁ceremoni	-12.0196
▁interchange	-12.0196
Cyborg	-12.0196
Django	-12.0196
Dogpatch	-12.0196
EEPERS	-12.0196
GHOSTHOUSE	-12.0196
Giorgio	-12.0196
Innerspace	-12.0196
Jezebel	-12.0196
Metropolis	-12.0196
October	-12.0196
Paramount	-12.0196
Patriot	-12.0196
Phantasm	-12.0196
Weingartner	-12.0196
aragraph	-12.0196
comprehend	-12.0196
emptiness	-12.0196
evaluate	-12.0196
nquisition	-12.0196
prostitution	-12.0196
requisite	-12.0196
rocodile	-12.0196
	-12.0196
▁/>9/10	-12.0196
▁1928	-12.0196
▁Adrien	-12.0196
▁Alfred	-12.0196
▁Alonzo	-12.0196
▁April	-12.0196
▁Bamboozled	-12.0196
▁Beyond	-12.0196
▁Bickford	-12.0196
▁Bounty	-12.0196
▁Brocco	-12.0196
▁Buzzi	-12.0196
▁Cardinal	-12.0196
▁Caucasian	-12.0196
▁Circus	-12.0196
▁Collette	-12.0196
▁Company	-12.0196
▁Cruise	-12.0196
▁Crystal	-12.0196
▁December	-12.0196
▁Denzel	-12.0196
▁Depardieu	-12.0196
▁Deputy	-12.0196
▁Dickinson	-12.0196
▁FILM	-12.0196
▁Fiennes	-12.0196
▁Fleisher	-12.0196
▁Gamblers	-12.0196
▁Ghraib	-12.0196
▁HOUSE	-12.0196
▁Harbour	-12.0196
▁Hawaii	-12.0196
▁Henriksen	-12.0196
▁Imamura	-12.0196
▁Journey	-12.0196
▁KISS	-12.0196
▁LAUGH	-12.0196
▁LONG	-12.0196
▁Lawrence	-12.0196
▁Lullaby	-12.0196
▁MADMAN	-12.0196
▁McKellan	-12.0196
▁Meredith	-12.0196
▁Miranda	-12.0196
▁Monroe	-12.0196
▁Moscow	-12.0196
▁Netflix	-12.0196
▁Nihaal	-12.0196
▁Nikki	-12.0196
▁Nureyev	-12.0196
▁Oberoi	-12.0196
▁Okinawa	-12.0196
▁Outstanding	-12.0196
▁Portra	-12.0196
▁Portuguese	-12.0196
▁Prohibition	-12.0196
▁Rabbit	-12.0196
▁Rochelle	-12.0196
▁Rowlands	-12.0196
▁Scofield	-12.0196
▁Scooby	-12.0196
▁Seyrig	-12.0196
▁Skull	-12.0196
▁Snoopy	-12.0196
▁Square	-12.0196
▁Suddenly	-12.0196
▁Syndrome	-12.0196
▁Tavira	-12.0196
▁Thanassoulis	-12.0196
▁Trevor	-12.0196
▁Verhoeven	-12.0196
▁Wagner	-12.0196
▁Weapon	-12.0196
▁Werewolf	-12.0196
▁Wonderland	-12.0196
▁Yankee	-12.0196
▁ZERO	-12.0196
▁acclaim	-12.0196
▁accompany	-12.0196
▁accuracy	-12.0196
▁administration	-12.0196
▁admission	-12.0196
▁adrenaline	-12.0196
▁albino	-12.0196
▁apathy	-12.0196
▁appetite	-12.0196
▁assault	-12.0196
▁bootleg	-12.0196
▁boundaries	-12.0196
▁breakthrough	-12.0196
▁buzz	-12.0196
▁camouflage	-12.0196
▁candidate	-12.0196
▁capacit	-12.0196
▁catastrophe	-12.0196
▁chemical	-12.0196
▁clumsily	-12.0196
▁complement	-12.0196
▁comprise	-12.0196
▁compromise	-12.0196
▁compuls	-12.0196
▁comrade	-12.0196
▁concoct	-12.0196
▁condemned	-12.0196
▁conference	-12.0196
▁conjure	-12.0196
▁consequently	-12.0196
▁contender	-12.0196
▁delegate	-12.0196
▁devastat	-12.0196
▁disorder	-12.0196
▁disservice	-12.0196
▁distributor	-12.0196
▁dynamite	-12.0196
▁eject	-12.0196
▁elicit	-12.0196
▁entrance	-12.0196
▁evaluation	-12.0196
▁excellence	-12.0196
▁exploding	-12.0196
▁extinct	-12.0196
▁extravagan	-12.0196
▁fantasies	-12.0196
▁flourishe	-12.0196
▁forewarned	-12.0196
▁fundamental	-12.0196
▁grotesque	-12.0196
▁horrifying	-12.0196
▁indifference	-12.0196
▁infuriating	-12.0196
▁ingenuity	-12.0196
▁injury	-12.0196
▁juvenile	-12.0196
▁kosovar	-12.0196
▁landowner	-12.0196
▁license	-12.0196
▁likability	-12.0196
▁lunatic	-12.0196
▁lyrical	-12.0196
▁magazine	-12.0196
▁manifestation	-12.0196
▁marijuana	-12.0196
▁maudlin	-12.0196
▁militant	-12.0196
▁misfortune	-12.0196
▁monument	-12.0196
▁morbid	-12.0196
▁neighbour	-12.0196
▁neurotic	-12.0196
▁nickname	-12.0196
▁opponents	-12.0196
▁ourselves	-12.0196
▁perceived	-12.0196
▁perseverance	-12.0196
▁perverse	-12.0196
▁predicament	-12.0196
▁prequel	-12.0196
▁prestig	-12.0196
▁privilege	-12.0196
▁proclaim	-12.0196
▁provocative	-12.0196
▁punctuate	-12.0196
▁puppy	-12.0196
▁rabbit	-12.0196
▁recycle	-12.0196
▁rejection	-12.0196
▁reunite	-12.0196
▁rookie	-12.0196
▁schizophreni	-12.0196
▁schtick	-12.0196
▁scruff	-12.0196
▁serving	-12.0196
▁shield	-12.0196
▁shrink	-12.0196
▁skyscraper	-12.0196
▁smitten	-12.0196
▁splatter	-12.0196
▁squirm	-12.0196
▁stubborn	-12.0196
▁stunned	-12.0196
▁subtext	-12.0196
▁succumb	-12.0196
▁surgery	-12.0196
▁suspicion	-12.0196
▁symptoms	-12.0196
▁syndicate	-12.0196
▁taboo	-12.0196
▁terrified	-12.0196
▁thirties	-12.0196
▁uneasy	-12.0196
▁unexplained	-12.0196
▁unleash	-12.0196
▁vessel	-12.0196
▁vicious	-12.0196
▁vortex	-12.0196
▁zoom	-12.0196
ATTACK	-12.0196
Hammerstein	-12.0196
Haralambides	-12.0196
emetery	-12.0196
	-12.0196
▁Bettany	-12.0196
▁Blvd	-12.0196
▁Desperate	-12.0196
▁Dietrich	-12.0196
▁Ferrari	-12.0196
▁Fleischer	-12.0196
▁HATE	-12.0196
▁Malkovich	-12.0196
▁McLane	-12.0196
▁Original	-12.0196
▁Perfect	-12.0196
▁SFX	-12.0196
▁Sherlock	-12.0196
▁Steckler	-12.0196
▁Stupid	-12.0196
▁Village	-12.0196
▁WHY	-12.0196
▁burrow	-12.0196
▁collide	-12.0196
▁devour	-12.0196
▁empathi	-12.0196
▁hapless	-12.0196
▁horrid	-12.0196
▁inconsisten	-12.0196
▁indigen	-12.0196
▁integral	-12.0196
▁irreverent	-12.0196
▁maligned	-12.0196
▁perceptive	-12.0196
▁remorse	-12.0196
▁satanic	-12.0196
▁scholar	-12.0196
▁synthesizer	-12.0196
▁tempera	-12.0196
▁testimon	-12.0196
▁unmarried	-12.0196
▁unnatural	-12.0196
▁vapid	-12.0196
▁voyeur	-12.0196
▁wielding	-12.0196
@	-12.0196
Homosexual	-12.0196
alibur	-12.0196
▁Baroness	-12.0196
▁Chandler	-12.0196
▁Chiffre	-12.0196
▁Fosse	-12.0196
▁Hamburg	-12.0196
▁Lenzi	-12.0196
▁Madonna	-12.0196
▁Pinhead	-12.0196
▁Raimi	-12.0196
▁Rambo	-12.0196
▁Runner	-12.0196
▁Theroux	-12.0196
▁Vermont	-12.0196
▁Vienna	-12.0196
▁Viggo	-12.0196
▁Women	-12.0196
▁Wonderful	-12.0196
▁Wrong	-12.0196
▁Zorro	-12.0196
▁brisk	-12.0196
▁captor	-12.0196
▁chamber	-12.0196
▁crotch	-12.0196
▁dignity	-12.0196
▁fetching	-12.0196
▁gnaw	-12.0196
▁hesitate	-12.0196
▁invasion	-12.0196
▁miniature	-12.0196
▁monstro	-12.0196
▁rampage	-12.0196
▁saloon	-12.0196
▁vintage	-12.0196
▁voting	-12.0196
▁$4	-12.0196
▁Novak	-12.0196
▁bleeding	-12.0196
Activision	-12.0196
▁8.5/10	-12.0196
▁Bishop	-12.0196
▁Conroy	-12.0196
▁Critic	-12.0196
▁Hammer	-12.0196
▁Violin	-12.0196
▁distort	-12.0196
▁inhabitants	-12.0196
▁yarn	-12.0196
Woodstock	-12.0196
dominant	-12.0196
▁Clowes	-12.0196
▁Daisy	-12.0196
▁Kahn	-12.0196
▁Mafia	-12.0196
▁Ouch	-12.0196
▁Pierce	-12.0196
▁Vivek	-12.0196
▁coffin	-12.0196
▁harmony	-12.0196
▁hypocrite	-12.0196
▁stabbed	-12.0196
▁thieves	-12.0196
▁timid	-12.0196
▁unbalanced	-12.0196
▁unwilling	-12.0196
homicid	-12.0196
▁Antonio	-12.0196
▁Araki	-12.0196
▁Emmy	-12.0196
▁Fallon	-12.0196
▁Hutton	-12.0196
▁Kinski	-12.0196
▁Palmer	-12.0196
▁WilyK	-12.0196
▁dazzl	-12.0196
▁shotgun	-12.0196
▁speck	-12.0196
▁Foster	-12.0196
▁Steiner	-12.0196
▁blackmail	-12.0196
▁Blake	-12.0196
▁Cindy	-12.0196
▁Freud	-12.0196
▁Niller	-12.0196
▁ambitions	-12.0196
▁shaved	-12.0196
▁snake	-12.0196
OTHER	-12.0196
boggling	-12.0196
▁Antony	-12.0196
▁Place	-12.0196
▁divert	-12.0196
▁vault	-12.0196
▁crisp	-12.0196
▁expand	-12.0196
▁renew	-12.0196
▁cuddl	-12.0196
▁smack	-12.0196
1942	-12.0196
ordinat	-12.0196
▁Foreign	-12.0196
▁Hyde	-12.0196
▁blink	-12.0196
▁branch	-12.0196
▁fabricat	-12.0196
▁lush	-12.0196
▁motif	-12.0196
ovich	-12.0196
▁Helsing	-12.0196
▁enslav	-12.0196
▁dvd	-12.0196
▁juggl	-12.0196
▁parrot	-12.0196
analysis	-12.0196
▁Blore	-12.0196
▁enforcement	-12.0196
▁ignoran	-12.0196
▁misfire	-12.0196
Translation	-12.0196
▁Tacey	-12.0196
▁qualif	-12.0196
▁FRI	-12.0196
▁declare	-12.0196
▁erupt	-12.0196
▁worn	-12.0196
▁Grable	-12.0196
▁Cummings	-12.0196
▁garage	-12.0196
▁greet	-12.0196
▁Doom	-12.0196
▁bloodshed	-12.0196
▁indelibl	-12.0196
▁mankind	-12.0196
▁taut	-12.0196
▁astonishe	-12.0196
▁shiver	-12.0196
▁critique	-12.0196
▁McQueen	-12.0196
▁notorious	-12.0196
▁Room	-12.0196
▁defining	-12.0196
▁recit	-12.0196
JUST	-12.0196
▁Hilarious	-12.0196
▁Believe	-12.0196
▁Utter	-12.0196
kilter	-12.0196
▁Spangl	-12.0196
Sarandon	-12.0196
▁Lyla	-12.0196
▁meteor	-12.0196
▁Hood	-12.0196
▁unluck	-12.0196
▁Scotland	-12.0196
cumber	-12.0196
▁smuggl	-12.0196
Easy	-12.0196
▁ANYTHING	-12.0196
5/10	-12.0197
▁Woodcock	-12.0197
▁impersonations	-12.0197
▁infinit	-12.0197
▁apologize	-12.0197
▁headache	-12.0197
▁youthful	-12.0197
▁Cosmo	-12.0197
▁Henri	-12.0197
▁cohesi	-12.0197
▁terminal	-12.0197
▁attain	-12.0197
▁Clearly	-12.0197
▁clique	-12.0197
▁Ellis	-12.0197
▁raid	-12.0197
▁monitor	-12.0197
▁Hallmark	-12.0197
▁hodge	-12.0197
▁venture	-12.0197
▁enterprise	-12.0197
▁Pena	-12.0197
▁Shining	-12.0197
▁Chinatown	-12.0197
▁documentaries	-12.0197
▁meager	-12.0197
▁Cannes	-12.0197
▁percent	-12.0197
▁extensive	-12.0197
▁presumably	-12.0197
▁gloomy	-12.0197
▁royal	-12.0197
▁beware	-12.0197
▁mustache	-12.0197
▁Wizard	-12.0197
▁Lovecraft	-12.0197
▁sleepwalk	-12.0197
▁terminate	-12.0197
▁Perez	-12.0197
▁Gilmore	-12.0197
thirst	-12.0197
▁shore	-12.0197
▁1938	-12.0197
▁miniseries	-12.0197
▁178	-12.0197
▁Barrie	-12.0197
▁Warning	-12.0197
▁incomprehensibl	-12.0197
▁aimless	-12.0197
▁Straight	-12.0197
▁stint	-12.0197
▁ambivalence	-12.0197
TLE	-12.0197
▁noisy	-12.0197
▁Eventually	-12.0197
Taxi	-12.0197
▁woven	-12.0198
advert	-12.0198
▁nudge	-12.0198
▁Claus	-12.0198
john	-12.0198
▁Neverland	-12.0198
▁Indie	-12.0198
▁sappy	-12.0198
▁stalked	-12.0198
▁inheritance	-12.0198
▁Bratt	-12.0198
▁scarred	-12.0198
ddiction	-12.0198
profile	-12.0198
▁Rigg	-12.0198
▁contribution	-12.0198
▁crossword	-12.0198
▁hustlers	-12.0198
▁Miike	-12.0198
▁ridden	-12.0198
▁Lawson	-12.0198
ootloose	-12.0198
▁rite	-12.0198
▁Thankfully	-12.0198
phras	-12.0198
ISH	-12.0198
▁Marcos	-12.0198
▁transfer	-12.0198
▁adhere	-12.0198
▁punish	-12.0198
▁lightning	-12.0198
▁devise	-12.0199
▁Prison	-12.0199
▁germ	-12.0199
▁strand	-12.0199
▁Shoot	-12.0199
▁penny	-12.0199
▁Beatty	-12.0199
▁frantic	-12.0199
snip	-12.0199
ddling	-12.0199
▁NIGHT	-12.0199
▁Romero	-12.0199
▁Odd	-12.0199
▁crank	-12.0199
rogat	-12.0199
▁pagan	-12.0199
▁sinner	-12.0199
▁Thundera	-12.02
▁MacFa	-12.02
▁bigot	-12.02
▁tramp	-12.02
▁Comedy	-12.02
▁1/10.	-12.02
▁Margu	-12.02
▁Series	-12.02
▁saga	-12.02
▁unsettling	-12.02
▁slapped	-12.02
▁investment	-12.02
▁"1"	-12.02
▁orgy	-12.02
!!!!!!!!!!!!!	-12.02
lasses	-12.02
▁potent	-12.02
▁innate	-12.02
▁Sharpe	-12.02
▁bounce	-12.0201
▁cabinet	-12.0201
▁Guru	-12.0201
wiki	-12.0201
Butterfl	-12.0201
▁accomplishment	-12.0201
▁fourteen	-12.0201
olfhound	-12.0201
▁interfere	-12.0201
Rosemary	-12.0201
collar	-12.0201
▁dropping	-12.0201
▁Waltz	-12.0201
▁bowl	-12.0201
▁blade	-12.0201
▁rejoi	-12.0201
▁Rickman	-12.0201
▁Sylv	-12.0201
▁giggl	-12.0201
▁brute	-12.0201
▁jury	-12.0201
▁launch	-12.0201
▁Hanna	-12.0201
▁discard	-12.0202
OUS	-12.0202
▁viewpoint	-12.0202
▁tenderness	-12.0202
▁invitation	-12.0202
▁Cardon	-12.0202
▁chaos	-12.0202
▁acceptance	-12.0202
▁Clay	-12.0202
▁187	-12.0202
▁superstar	-12.0202
▁2003	-12.0202
grabbed	-12.0202
▁Fifi	-12.0202
▁rapper	-12.0202
▁Priest	-12.0202
▁Virginia	-12.0202
▁Halley	-12.0202
ightened	-12.0202
▁glue	-12.0202
▁Agath	-12.0202
▁diner	-12.0203
▁Giam	-12.0203
▁Birch	-12.0203
▁haha	-12.0203
▁fluff	-12.0203
▁Stock	-12.0203
Paddy	-12.0203
▁corruption	-12.0203
▁Desi	-12.0203
▁lazi	-12.0203
▁Maja	-12.0203
▁limp	-12.0203
▁Elling	-12.0203
blanc	-12.0203
▁revel	-12.0203
▁guardian	-12.0203
▁march	-12.0203
▁captain	-12.0204
▁Robinson	-12.0204
▁Byler	-12.0204
▁voters	-12.0204
bashed	-12.0204
▁crypt	-12.0204
▁spaceship	-12.0205
▁Thai	-12.0205
▁bride	-12.0205
ollercoaster	-12.0205
▁Ohio	-12.0205
▁reek	-12.0205
▁Kingdom	-12.0205
▁determination	-12.0205
▁Drake	-12.0205
▁Money	-12.0205
▁Yash	-12.0206
▁Adamson	-12.0206
▁Lennie	-12.0206
▁weaponry	-12.0206
▁tragically	-12.0206
▁Mathis	-12.0206
lorn	-12.0206
▁distinctive	-12.0207
poof	-12.0207
▁villagers	-12.0207
▁fence	-12.0207
▁Marx	-12.0207
▁Zack	-12.0207
▁Spring	-12.0207
rwin	-12.0207
▁fright	-12.0207
▁theories	-12.0207
▁62	-12.0208
Jannings	-12.0208
▁Loach	-12.0208
▁missile	-12.0209
Stripes	-12.0209
▁Fear	-12.0209
▁$20	-12.0209
▁candle	-12.0209
▁lens	-12.021
ollection	-12.021
▁Somehow	-12.021
▁Turk	-12.021
▁preparation	-12.0212
▁pump	-12.0212
▁roar	-12.0212
▁Marry	-12.0213
▁recur	-12.0213
▁sane	-12.0215
▁penis	-12.0215
▁Leno	-12.0216
▁honour	-12.0217
Contin	-12.0217
▁Wallac	-12.0218
Ethel	-12.0219
▁Brough	-12.0219
ASS	-12.0219
▁manipulation	-12.022
▁Koh	-12.0221
▁hail	-12.0221
▁handicap	-12.0223
▁Regi	-12.023
▁deviat	-12.0235
▁Emb	-12.0235
▁curv	-12.0236
▁plug	-12.0238
Nigeria	-12.0239
appiness	-12.0241
▁reap	-12.0241
Eragon	-12.0241
▁audibl	-12.0242
▁Hack	-12.0244
matched	-12.0244
▁possession	-12.0245
▁infectio	-12.0245
▁Winston	-12.0248
Casey	-12.0248
▁overlap	-12.0249
wagon	-12.0255
aggle	-12.0256
▁jet	-12.026
cited	-12.0264
▁intro	-12.0269
▁Fille	-12.0278
ungeon	-12.028
▁intend	-12.0281
Standard	-12.0281
▁gush	-12.0288
Jubil	-12.0297
▁griev	-12.0301
▁Vol	-12.0307
▁boob	-12.0311
▁capitalize	-12.0315
xorci	-12.032
▁Grie	-12.0326
LIN	-12.0328
▁lurk	-12.0343
baked	-12.0348
▁boost	-12.0369
discern	-12.0389
ctively	-12.0396
Harmon	-12.0398
moralizing	-12.04
bender	-12.0404
lises	-12.0406
▁intrud	-12.0408
ccountant	-12.0423
▁dispos	-12.0435
▁statu	-12.046
strange	-12.0481
▁Div	-12.0483
KEN	-12.0486
rmless	-12.0491
Needles	-12.0495
Step	-12.0538
Lemm	-12.0545
cult	-12.0549
orris	-12.0558
Antoni	-12.0581
oooo	-12.0596
pathos	-12.0616
Capri	-12.0621
runner	-12.0624
Prag	-12.0678
RTY	-12.0736
ongratulations	-12.0958
▁observ	-12.0998
▁emb	-12.1011
ncidentally	-12.104
▁Nige	-12.1044
▁slug	-12.1095
▁Wad	-12.1097
layboy	-12.1098
Throughout	-12.1115
Near	-12.1138
▁trav	-12.1259
nough	-12.1309
!!!!!!!	-12.1374
manufactured	-12.1375
▁Feu	-12.1401
79	-12.1499
INT	-12.1534
▁interpla	-12.1644
unsk	-12.1709
onveniently	-12.1825
▁Marlo	-12.1871
Shin	-12.1892
HIS	-12.2014
▁Gabriell	-12.2048
Smil	-12.2137
oge	-12.2234
▁(200	-12.2261
▁disclos	-12.2338
▁trou	-12.2381
▁publicize	-12.2434
lpha	-12.2505
▁congratulat	-12.2556
misinterpret	-12.2702
eaten	-12.2798
interpreted	-12.2815
Cute	-12.287
intentionally	-12.289
▁criti	-12.2897
wakening	-12.3042
ggin	-12.3066
▁styl	-12.3072
▁induce	-12.3078
▁Trac	-12.3087
closure	-12.3091
ronically	-12.3219
Pierr	-12.3259
otten	-12.3277
▁inevitab	-12.3297
▁captur	-12.33
▁err	-12.3306
▁advanc	-12.3315
philosoph	-12.3338
Leav	-12.3341
▁marginal	-12.3386
▁BLOOD	-12.3406
▁cheat	-12.3417
masochist	-12.343
▁(195	-12.3452
▁Scot	-12.3458
inspired	-12.3461
suspens	-12.3462
Predator	-12.3462
Margaret	-12.3462
Special	-12.3462
satisfied	-12.3462
interesting	-12.3462
Amityville	-12.3463
Ultimately	-12.3463
resolved	-12.3463
LOL	-12.3463
dubbed	-12.3463
Except	-12.3463
Murder	-12.3463
Grade	-12.3463
North	-12.3463
Alien	-12.3463
Wait	-12.3464
authentic	-12.3464
national	-12.3464
club	-12.3464
provoking	-12.3464
Superman	-12.3464
Sorry	-12.3464
Angel	-12.3465
▁captivat	-12.3465
Besides	-12.3465
print	-12.3465
AIDS	-12.3465
racial	-12.3465
cultural	-12.3465
Poor	-12.3465
Stephen	-12.3465
Tell	-12.3465
Satan	-12.3465
statement	-12.3465
gimmick	-12.3465
Dracula	-12.3465
ghost	-12.3465
Douglas	-12.3466
knock	-12.3466
Christopher	-12.3466
nonsense	-12.3466
victim	-12.3466
blue	-12.3466
Everything	-12.3466
fashion	-12.3466
Laura	-12.3466
Charles	-12.3466
dancing	-12.3466
length	-12.3466
Jason	-12.3466
Indian	-12.3466
Italian	-12.3467
unfortunately	-12.3467
Charlie	-12.3467
European	-12.3467
success	-12.3467
food	-12.3467
clever	-12.3467
social	-12.3467
paid	-12.3467
weird	-12.3467
▁ensu	-12.3467
business	-12.3467
Nazi	-12.3467
brilliant	-12.3467
girlfriend	-12.3467
Adam	-12.3467
everything	-12.3467
remember	-12.3467
jokes	-12.3467
voice	-12.3467
sometimes	-12.3467
split	-12.3467
help	-12.3467
first	-12.3468
buy	-12.3468
better	-12.3468
alien	-12.3468
seeming	-12.3469
moments	-12.3469
stellar	-12.3471
Penn	-12.3472
biography	-12.3474
invent	-12.3476
▁retard	-12.3484
▁referenc	-12.3486
▁happi	-12.349
▁literal	-12.3494
▁immediate	-12.3494
describ	-12.3495
▁resolve	-12.3498
▁extraordinar	-12.3506
nately	-12.3507
EXA	-12.3508
employe	-12.3512
xpress	-12.3512
nclud	-12.3514
▁caricatur	-12.3519
▁dysfunction	-12.3522
ntelligence	-12.3522
nfluence	-12.3522
corsese	-12.3523
▁obsessi	-12.3524
▁imitat	-12.3524
▁trivia	-12.3524
▁influen	-12.3524
aylor	-12.3525
0/10	-12.3526
▁speculat	-12.3526
▁Patric	-12.3527
▁Niels	-12.3527
erformances	-12.3527
heav	-12.3527
▁outrage	-12.3528
▁compassion	-12.3528
clusive	-12.3528
▁abomina	-12.3528
ocumentaries	-12.3528
▁sarcas	-12.3528
nergy	-12.3528
avorite	-12.3528
ratuitous	-12.3528
▁chronic	-12.3528
▁yell	-12.3529
▁impersonat	-12.3529
oodoo	-12.3529
▁priv	-12.3529
▁Trans	-12.3529
redecessor	-12.3529
▁Doug	-12.3529
Apocalyps	-12.3529
KILLER	-12.3529
Simbu	-12.3529
mpathetic	-12.3529
traumati	-12.3529
▁Donnadieu	-12.3529
▁Unbelievabl	-12.3529
▁dishonor	-12.3529
▁hollywood	-12.3529
-1950	-12.3529
Assault	-12.3529
Austrian	-12.3529
BATTLE	-12.3529
Beowulf	-12.3529
Carradine	-12.3529
Copacabana	-12.3529
DAMN	-12.3529
Different	-12.3529
Eraserhead	-12.3529
Explorers	-12.3529
FUNNY	-12.3529
Goodfellas	-12.3529
Hurricane	-12.3529
Lubitsch	-12.3529
Problem	-12.3529
RATING	-12.3529
Ridiculous	-12.3529
Society	-12.3529
VIOLEN	-12.3529
WARNING	-12.3529
akuza	-12.3529
benefactor	-12.3529
ducator	-12.3529
hapsodi	-12.3529
jumbo	-12.3529
lasphemy	-12.3529
omnibus	-12.3529
osovo	-12.3529
psychiatry	-12.3529
uplicate	-12.3529
volunteer	-12.3529
yslexic	-12.3529
ß	-12.3529
à	-12.3529
ñ	-12.3529
ö	-12.3529
▁(1967)	-12.3529
▁/>7/10	-12.3529
▁1948	-12.3529
▁1949	-12.3529
▁1962	-12.3529
▁1966	-12.3529
▁1972	-12.3529
▁1973	-12.3529
▁1974	-12.3529
▁1993	-12.3529
▁Arizona	-12.3529
▁Arquette	-12.3529
▁Baldwin	-12.3529
▁Birdcage	-12.3529
▁Bloom	-12.3529
▁Bujold	-12.3529
▁CONFUS	-12.3529
▁Champion	-12.3529
▁Chancellor	-12.3529
▁Cheetara	-12.3529
▁Cincinnati	-12.3529
▁Claudi	-12.3529
▁Cliché	-12.3529
▁Communist	-12.3529
▁Constantin	-12.3529
▁Corporation	-12.3529
▁Coughlin	-12.3529
▁Custom	-12.3529
▁Dacascos	-12.3529
▁Depression	-12.3529
▁ECOMOG	-12.3529
▁Edinburgh	-12.3529
▁Elvira	-12.3529
▁Emporium	-12.3529
▁Encounter	-12.3529
▁Entertainment	-12.3529
▁Esteban	-12.3529
▁Extreme	-12.3529
▁Fenech	-12.3529
▁Flyboys	-12.3529
▁Freetown	-12.3529
▁Gonzo	-12.3529
▁Grendel	-12.3529
▁HIGH	-12.3529
▁Helsinki	-12.3529
▁Hersholt	-12.3529
▁Immediately	-12.3529
▁Jagger	-12.3529
▁Jamaica	-12.3529
▁Jodorowsky	-12.3529
▁Johansson	-12.3529
▁Kassovitz	-12.3529
▁Kellogg	-12.3529
▁Kibbee	-12.3529
▁Kwouk	-12.3529
▁LEATHERFACE	-12.3529
▁Latifah	-12.3529
▁Literally	-12.3529
▁MANIACS	-12.3529
▁MONSTER	-12.3529
▁Maniacs	-12.3529
▁McDowell	-12.3529
▁Miguel	-12.3529
▁Monterey	-12.3529
▁Mountain	-12.3529
▁Mythbusters	-12.3529
▁NATO	-12.3529
▁Nawab	-12.3529
▁Niemi	-12.3529
▁Nixon	-12.3529
▁Norrington	-12.3529
▁Northwest	-12.3529
▁Ontario	-12.3529
▁PLEASE	-12.3529
▁Pendleton	-12.3529
▁Pentagon	-12.3529
▁Pleasures	-12.3529
▁Popenguine	-12.3529
▁Portman	-12.3529
▁Possessed	-12.3529
▁Promise	-12.3529
▁Proyas	-12.3529
▁Ptierodactyl	-12.3529
▁Questions	-12.3529
▁Rathbone	-12.3529
▁Ritzes	-12.3529
▁Sacrifice	-12.3529
▁Samantha	-12.3529
▁Sanchez	-12.3529
▁Sandkuhler	-12.3529
▁Sarajevo	-12.3529
▁Scandinavian	-12.3529
▁Schnaas	-12.3529
▁Scientists	-12.3529
▁Scorcese	-12.3529
▁Security	-12.3529
▁Sharpton	-12.3529
▁Shields	-12.3529
▁Shwaba	-12.3529
▁Shyamalan	-12.3529
▁Slayer	-12.3529
▁Sleigh	-12.3529
▁Stagecoach	-12.3529
▁Stiglitz	-12.3529
▁Surprise	-12.3529
▁Suspense	-12.3529
▁Swanson	-12.3529
▁Sydney	-12.3529
▁TWICE	-12.3529
▁Thouvenin	-12.3529
▁Tibet	-12.3529
▁Toufexis	-12.3529
▁Travati	-12.3529
▁Trouble	-12.3529
▁Tunnel	-12.3529
▁VALET	-12.3529
▁Ventura	-12.3529
▁Veracruz	-12.3529
▁Vitelli	-12.3529
▁Vladimir	-12.3529
▁Waldemar	-12.3529
▁Whitaker	-12.3529
▁Woolsey	-12.3529
▁Wynorski	-12.3529
▁Yesterday	-12.3529
▁acquaintance	-12.3529
▁activate	-12.3529
▁activist	-12.3529
▁aggression	-12.3529
▁allegorical	-12.3529
▁artifact	-12.3529
▁astronaut	-12.3529
▁baboon	-12.3529
▁baffling	-12.3529
▁baggage	-12.3529
▁bicycle	-12.3529
▁bidding	-12.3529
▁biscuit	-12.3529
▁bourgeois	-12.3529
▁bureaucra	-12.3529
▁calculat	-12.3529
▁categories	-12.3529
▁cavalry	-12.3529
▁champagne	-12.3529
▁chauffeur	-12.3529
▁chronolog	-12.3529
▁circula	-12.3529
▁clobber	-12.3529
▁component	-12.3529
▁composite	-12.3529
▁concrete	-12.3529
▁contrivance	-12.3529
▁controversy	-12.3529
▁convoy	-12.3529
▁cottage	-12.3529
▁cuisine	-12.3529
▁curveball	-12.3529
▁database	-12.3529
▁defender	-12.3529
▁degenerate	-12.3529
▁demographic	-12.3529
▁denouement	-12.3529
▁despair	-12.3529
▁despicable	-12.3529
▁dialect	-12.3529
▁dichotomy	-12.3529
▁discomfort	-12.3529
▁discredit	-12.3529
▁earthworms	-12.3529
▁eclipse	-12.3529
▁embellish	-12.3529
▁emulate	-12.3529
▁enthrall	-12.3529
▁eviction	-12.3529
▁exaggerating	-12.3529
▁excrement	-12.3529
▁exhilarati	-12.3529
▁extremist	-12.3529
▁faucet	-12.3529
▁fervor	-12.3529
▁foreshadow	-12.3529
▁friggin	-12.3529
▁frustration	-12.3529
▁ghoul	-12.3529
▁gigolo	-12.3529
▁glamour	-12.3529
▁glitter	-12.3529
▁globaliz	-12.3529
▁heartstrings	-12.3529
▁helicopter	-12.3529
▁hijacker	-12.3529
▁hypocritical	-12.3529
▁hysteria	-12.3529
▁imaginary	-12.3529
▁impossibil	-12.3529
▁improvise	-12.3529
▁impulsive	-12.3529
▁incessant	-12.3529
▁innocuous	-12.3529
▁innuendo	-12.3529
▁inquiry	-12.3529
▁insecure	-12.3529
▁instantaneous	-12.3529
▁interlude	-12.3529
▁interotron	-12.3529
▁irresistibl	-12.3529
▁irritation	-12.3529
▁junior	-12.3529
▁lacklustre	-12.3529
▁liberation	-12.3529
▁malfunction	-12.3529
▁maneuvers	-12.3529
▁marvellous	-12.3529
▁massacre	-12.3529
▁mediocrity	-12.3529
▁melancholy	-12.3529
▁mercenary	-12.3529
▁merciless	-12.3529
▁misbehav	-12.3529
▁mosaic	-12.3529
▁narcissis	-12.3529
▁nastiness	-12.3529
▁nemesis	-12.3529
▁nimble	-12.3529
▁nitpick	-12.3529
▁notoriety	-12.3529
▁offspring	-12.3529
▁omitted	-12.3529
▁optimism	-12.3529
▁painstaking	-12.3529
▁pantomime	-12.3529
▁patronizing	-12.3529
▁peculiar	-12.3529
▁perpetuate	-12.3529
▁philander	-12.3529
▁physician	-12.3529
▁pixel	-12.3529
▁pleading	-12.3529
▁pocket	-12.3529
▁pompous	-12.3529
▁populace	-12.3529
▁prologue	-12.3529
▁promiscu	-12.3529
▁proprietor	-12.3529
▁prosthetic	-12.3529
▁psychedelic	-12.3529
▁psychopath	-12.3529
▁quagmire	-12.3529
▁recognise	-12.3529
▁refined	-12.3529
▁reissue	-12.3529
▁repertoire	-12.3529
▁repetitious	-12.3529
▁reprise	-12.3529
▁repulse	-12.3529
▁repulsive	-12.3529
▁respond	-12.3529
▁revolting	-12.3529
▁rumour	-12.3529
▁salvage	-12.3529
▁sanitiz	-12.3529
▁schlock	-12.3529
▁separation	-12.3529
▁simplicity	-12.3529
▁slammed	-12.3529
▁smirk	-12.3529
▁smolder	-12.3529
▁societies	-12.3529
▁splendor	-12.3529
▁sponge	-12.3529
▁sprinkl	-12.3529
▁stereotyping	-12.3529
▁strategy	-12.3529
▁suffocat	-12.3529
▁superfluous	-12.3529
▁superlative	-12.3529
▁surrender	-12.3529
▁sympathies	-12.3529
▁tattoo	-12.3529
▁taxpayer	-12.3529
▁thirteen	-12.3529
▁threadbare	-12.3529
▁titillation	-12.3529
▁transcend	-12.3529
▁trimmed	-12.3529
▁turmoil	-12.3529
▁undetected	-12.3529
▁unmistakable	-12.3529
▁unnerving	-12.3529
▁unnoticed	-12.3529
▁unquestion	-12.3529
▁unremarkable	-12.3529
▁untouched	-12.3529
▁vengeance	-12.3529
▁visibly	-12.3529
▁vitality	-12.3529
▁volleyball	-12.3529
▁wardrobe	-12.3529
▁welfare	-12.3529
▁whispers	-12.3529
▁xxxxxxxxxx	-12.3529
▁yuppie	-12.3529
Colossus	-12.3529
Phantom	-12.3529
Taisheng	-12.3529
▁$30	-12.3529
▁Chopra	-12.3529
▁Gemser	-12.3529
▁Gentlemen	-12.3529
▁Gwyn	-12.3529
▁Letterman	-12.3529
▁Mutant	-12.3529
▁Watney	-12.3529
▁Wilford	-12.3529
▁ancestor	-12.3529
▁assignment	-12.3529
▁burgl	-12.3529
▁constipat	-12.3529
▁dessert	-12.3529
▁dimwit	-12.3529
▁gossip	-12.3529
▁sponsor	-12.3529
▁staple	-12.3529
▁yesterday	-12.3529
AWESOM	-12.3529
Djinn	-12.3529
Gavras	-12.3529
Schizophrenia	-12.3529
cognit	-12.3529
iscipline	-12.3529
phobic	-12.3529
▁(1998)	-12.3529
▁ALIENS	-12.3529
▁Ackroyd	-12.3529
▁Aubrey	-12.3529
▁Benigni	-12.3529
▁Cassandra	-12.3529
▁Crisp	-12.3529
▁Cultur	-12.3529
▁Duncan	-12.3529
▁Ekland	-12.3529
▁Emiko	-12.3529
▁Evans	-12.3529
▁FANTAS	-12.3529
▁Flaher	-12.3529
▁HARD	-12.3529
▁HORR	-12.3529
▁Hostel	-12.3529
▁Jersey	-12.3529
▁Kappa	-12.3529
▁LUV	-12.3529
▁Magorium	-12.3529
▁María	-12.3529
▁McClane	-12.3529
▁McGowan	-12.3529
▁Murdoch	-12.3529
▁Pichel	-12.3529
▁Possibl	-12.3529
▁Pullman	-12.3529
▁Quillian	-12.3529
▁Reagan	-12.3529
▁SEAL	-12.3529
▁Sleep	-12.3529
▁Snarf	-12.3529
▁Squad	-12.3529
▁Thief	-12.3529
▁Varney	-12.3529
▁WOL	-12.3529
▁Wadleigh	-12.3529
▁anthropologist	-12.3529
▁backfires	-12.3529
▁bisexual	-12.3529
▁clunker	-12.3529
▁counsel	-12.3529
▁exhaust	-12.3529
▁hollow	-12.3529
▁introspecti	-12.3529
▁niece	-12.3529
▁orgasm	-12.3529
▁pencil	-12.3529
▁prospect	-12.3529
▁radar	-12.3529
▁ransom	-12.3529
▁riveted	-12.3529
▁swag	-12.3529
▁trowel	-12.3529
▁underneath	-12.3529
▁worship	-12.3529
▁yourselves	-12.3529
Girdler	-12.3529
Viva	-12.3529
lephant	-12.3529
utionary	-12.3529
▁(1996)	-12.3529
▁Cortes	-12.3529
▁Cusack	-12.3529
▁Grind	-12.3529
▁HOT	-12.3529
▁Hayek	-12.3529
▁Houston	-12.3529
▁Hurley	-12.3529
▁Knox	-12.3529
▁Senator	-12.3529
▁TLJ	-12.3529
▁Truman	-12.3529
▁carcass	-12.3529
▁gallery	-12.3529
▁hitherto	-12.3529
▁insurance	-12.3529
▁murky	-12.3529
▁niche	-12.3529
▁perversions	-12.3529
▁seductress	-12.3529
▁swap	-12.3529
▁throne	-12.3529
▁tutor	-12.3529
▁unmask	-12.3529
1890	-12.3529
Qaeda	-12.3529
Visually	-12.3529
umentary	-12.3529
ç	-12.3529
▁Chloe	-12.3529
▁Creek	-12.3529
▁Gramm	-12.3529
▁Hooper	-12.3529
▁Impaler	-12.3529
▁Lefty	-12.3529
▁Spencer	-12.3529
▁Washb	-12.3529
▁aesthetic	-12.3529
▁avenge	-12.3529
▁biographi	-12.3529
▁competitor	-12.3529
▁duration	-12.3529
▁farcical	-12.3529
▁goddess	-12.3529
▁hesitation	-12.3529
▁prank	-12.3529
▁retreat	-12.3529
▁scarcely	-12.3529
▁thematically	-12.3529
STORY	-12.3529
▁7.5/10	-12.3529
▁Future	-12.3529
▁Knock	-12.3529
▁Recent	-12.3529
▁bruis	-12.3529
▁fisherman	-12.3529
▁mutilat	-12.3529
▁rugged	-12.3529
▁scope	-12.3529
▁utility	-12.3529
▁wilderness	-12.3529
▁Editor	-12.3529
▁HIV	-12.3529
▁Vernon	-12.3529
▁Weisz	-12.3529
▁analytic	-12.3529
▁aspire	-12.3529
▁composition	-12.3529
▁meditation	-12.3529
▁whiskey	-12.3529
genital	-12.3529
▁(1993)	-12.3529
▁Spader	-12.3529
▁fascis	-12.3529
▁nobility	-12.3529
▁Caleb	-12.3529
▁Chismore	-12.3529
▁Draco	-12.3529
▁Extra	-12.3529
▁Lodger	-12.3529
▁SNL	-12.3529
▁Toomey	-12.3529
▁collage	-12.3529
▁mesmeriz	-12.3529
▁outlandish	-12.3529
▁patrol	-12.3529
▁pigeon	-12.3529
▁regain	-12.3529
▁scoop	-12.3529
▁strangle	-12.3529
▁synchroni	-12.3529
▁thrive	-12.3529
▁uncover	-12.3529
▁warehouse	-12.3529
Frankenstein	-12.3529
▁conceal	-12.3529
▁grabbing	-12.3529
COA	-12.3529
decipher	-12.3529
loathing	-12.3529
▁Nitro	-12.3529
▁clients	-12.3529
▁lyrics	-12.3529
▁memoir	-12.3529
▁regulat	-12.3529
▁tug	-12.3529
▁vanished	-12.3529
▁Abner	-12.3529
▁achieving	-12.3529
▁casino	-12.3529
▁saddened	-12.3529
Berengaria	-12.3529
▁HIM	-12.3529
▁Jacob	-12.3529
▁Leben	-12.3529
▁Wedding	-12.3529
▁mistress	-12.3529
▁transpir	-12.3529
▁undertones	-12.3529
enactment	-12.3529
▁Wyler	-12.3529
▁cavern	-12.3529
▁framing	-12.3529
▁glorifi	-12.3529
▁squirt	-12.3529
Maryjane	-12.3529
▁Barbera	-12.353
▁Pool	-12.353
▁churn	-12.353
▁fetish	-12.353
Jacque	-12.353
▁thwart	-12.353
Seinfeld	-12.353
▁duties	-12.353
▁Idaho	-12.353
▁Yanks	-12.353
▁shuttle	-12.353
▁(2002)	-12.353
▁schoolgirls	-12.353
▁undermine	-12.353
▁Fanu	-12.353
▁prick	-12.353
▁Jerk	-12.353
▁ineffective	-12.353
▁solemn	-12.353
▁Buffy	-12.353
▁Tyler	-12.353
▁shrews	-12.353
▁Ritter	-12.353
Confiden	-12.353
▁Maysles	-12.353
▁Vikings	-12.353
▁Metro	-12.353
▁Persian	-12.353
▁beggar	-12.353
▁classmates	-12.353
Bocelli	-12.353
posito	-12.353
▁Arkin	-12.353
narchy	-12.353
▁Knee	-12.353
▁Doyle	-12.353
▁dismal	-12.353
▁overtones	-12.353
▁Huston	-12.353
▁Kyra	-12.353
▁pensive	-12.353
▁exci	-12.353
brainwashe	-12.353
nix	-12.353
▁temporar	-12.353
▁Curtin	-12.353
▁irrev	-12.353
▁Sherri	-12.353
▁Stranger	-12.353
nyip	-12.353
▁damsel	-12.353
elope	-12.353
▁imprint	-12.353
▁Hotel	-12.353
▁Rodan	-12.353
▁clinical	-12.353
▁Flint	-12.353
▁permissi	-12.353
▁reruns	-12.353
▁coerce	-12.353
▁Aqua	-12.353
▁Style	-12.353
▁autism	-12.353
▁Demons	-12.353
▁indict	-12.353
▁presum	-12.353
viscera	-12.353
▁Kingsley	-12.353
▁horny	-12.353
▁Cosby	-12.353
▁harass	-12.353
hokum	-12.353
nitor	-12.353
▁Altman	-12.353
▁pollut	-12.353
▁predictability	-12.353
▁Corp	-12.353
://	-12.353
▁Smart	-12.353
bolical	-12.353
▁Peel	-12.353
▁approve	-12.353
housekeeper	-12.353
lapses	-12.353
▁persist	-12.353
▁flirt	-12.353
skirts	-12.353
▁imperfect	-12.353
▁Grim	-12.353
nstein	-12.353
▁peep	-12.353
▁Design	-12.353
▁infant	-12.353
assurance	-12.353
▁Boston	-12.353
▁forehead	-12.3531
▁summarize	-12.3531
▁frown	-12.3531
▁jaded	-12.3531
▁Besson	-12.3531
▁dishes	-12.3531
▁belated	-12.3531
▁Deliver	-12.3531
oek	-12.3531
gmatic	-12.3531
▁desolat	-12.3531
athoms	-12.3531
playwright	-12.3531
▁shelter	-12.3531
▁Tower	-12.3531
▁Chains	-12.3531
▁unseen	-12.3531
▁Peck	-12.3531
▁Mask	-12.3531
▁secure	-12.3532
▁Mumm	-12.3532
cuz	-12.3532
▁Intro	-12.3532
▁rehab	-12.3532
sacri	-12.3532
Innocen	-12.3532
▁Liberia	-12.3532
straints	-12.3532
▁squea	-12.3532
▁stigma	-12.3532
▁Meyer	-12.3532
enegal	-12.3533
▁furni	-12.3533
▁loathe	-12.3533
▁Aran	-12.3533
POT	-12.3533
tepmother	-12.3533
VENGE	-12.3534
mortal	-12.3534
▁falsifi	-12.3534
▁Felic	-12.3534
▁palpabl	-12.3534
oscoe	-12.3534
▁Forsyth	-12.3534
▁ethic	-12.3535
Malory	-12.3535
xxx	-12.3535
MOD	-12.3535
hubby	-12.3535
▁Memor	-12.3535
▁slog	-12.3535
eference	-12.3535
▁choke	-12.3535
▁Muha	-12.3536
TUR	-12.3537
ergeant	-12.3537
▁Judi	-12.3537
pears	-12.3537
▁initiat	-12.3537
▁Styro	-12.3538
▁Prou	-12.3538
agney	-12.3541
oopers	-12.3541
▁Slav	-12.3541
abaret	-12.3543
▁jell	-12.3543
eacekeeper	-12.3544
equenc	-12.3544
▁chipp	-12.3545
▁hinge	-12.3545
Pulse	-12.3545
▁Frederic	-12.3546
Natha	-12.3548
fledg	-12.3548
annah	-12.3548
ocaine	-12.355
esbian	-12.3551
▁frolic	-12.3552
▁Mallo	-12.3552
Listen	-12.3553
characterisation	-12.3555
ultiplayer	-12.3557
▁resonan	-12.3559
hoops	-12.356
▁mecha	-12.3561
▁Premi	-12.3564
▁delete	-12.3564
▁latin	-12.3569
unge	-12.3577
▁vegeta	-12.3578
▁pillag	-12.358
▁Cinn	-12.3581
morphi	-12.3586
ordid	-12.3594
▁Kurdis	-12.3602
contaminat	-12.3604
arried	-12.3612
Leni	-12.3621
gorier	-12.363
tensive	-12.3635
scariest	-12.3647
settling	-12.3662
▁marginalize	-12.3675
stylis	-12.3707
▁babbl	-12.3741
ocrat	-12.3837
elevision	-12.3865
pillar	-12.3882
Vince	-12.3908
Commo	-12.3929
▁dislik	-12.403
▁Diann	-12.4038
ontains	-12.404
digging	-12.4067
eemed	-12.4071
anadian	-12.4074
▁capabilit	-12.4134
▁evok	-12.4135
▁encourag	-12.4166
plant	-12.4254
▁toleran	-12.4333
eacher	-12.4495
buster	-12.4521
..............	-12.4965
▁contribut	-12.4992
centered	-12.5077
DLE	-12.5129
=	-12.8466
>	-12.8529
\	-12.8529
}	-12.8529
®	-12.8529
ı	-12.8529
ô	-12.8529
	-13.8523
í	-13.8524
[	-13.8525
£	-13.8526
è	-13.8527
́	-13.8528
ü	-13.8529
#	-13.8529
